{
  "version": "1.0",
  "truncation": null,
  "padding": null,
  "added_tokens": [
    {
      "id": 0,
      "content": "[UNK]",
      "single_word": false,
      "lstrip": false,
      "rstrip": false,
      "normalized": false,
      "special": true
    }
  ],
  "normalizer": null,
  "pre_tokenizer": {
    "type": "ByteLevel",
    "add_prefix_space": true,
    "trim_offsets": true,
    "use_regex": true
  },
  "post_processor": null,
  "decoder": {
    "type": "ByteLevel",
    "add_prefix_space": true,
    "trim_offsets": true,
    "use_regex": true
  },
  "model": {
    "type": "BPE",
    "dropout": null,
    "unk_token": "[UNK]",
    "continuing_subword_prefix": null,
    "end_of_word_suffix": null,
    "fuse_unk": false,
    "byte_fallback": false,
    "ignore_merges": false,
    "vocab": {
      "[UNK]": 0,
      "!": 1,
      "$": 2,
      "&": 3,
      "'": 4,
      ",": 5,
      "-": 6,
      ".": 7,
      "3": 8,
      ":": 9,
      ";": 10,
      "?": 11,
      "A": 12,
      "B": 13,
      "C": 14,
      "D": 15,
      "E": 16,
      "F": 17,
      "G": 18,
      "H": 19,
      "I": 20,
      "J": 21,
      "K": 22,
      "L": 23,
      "M": 24,
      "N": 25,
      "O": 26,
      "P": 27,
      "Q": 28,
      "R": 29,
      "S": 30,
      "T": 31,
      "U": 32,
      "V": 33,
      "W": 34,
      "X": 35,
      "Y": 36,
      "Z": 37,
      "a": 38,
      "b": 39,
      "c": 40,
      "d": 41,
      "e": 42,
      "f": 43,
      "g": 44,
      "h": 45,
      "i": 46,
      "j": 47,
      "k": 48,
      "l": 49,
      "m": 50,
      "n": 51,
      "o": 52,
      "p": 53,
      "q": 54,
      "r": 55,
      "s": 56,
      "t": 57,
      "u": 58,
      "v": 59,
      "w": 60,
      "x": 61,
      "y": 62,
      "z": 63,
      "Ċ": 64,
      "Ġ": 65,
      "Ġt": 66,
      "he": 67,
      "Ġa": 68,
      "ou": 69,
      "Ġs": 70,
      "Ġm": 71,
      "Ġw": 72,
      "in": 73,
      "re": 74,
      "ha": 75,
      "Ġthe": 76,
      "nd": 77,
      "Ġb": 78,
      "is": 79,
      "or": 80,
      "ĠĊ": 81,
      "Ġf": 82,
      "ĠI": 83,
      "er": 84,
      "ll": 85,
      "it": 86,
      "on": 87,
      "Ġd": 88,
      "Ġc": 89,
      "Ġn": 90,
      "Ġl": 91,
      "Ġy": 92,
      "es": 93,
      "en": 94,
      "Ġth": 95,
      "ar": 96,
      "Ġh": 97,
      "Ġo": 98,
      "Ġto": 99,
      "Ġyou": 100,
      "Ġp": 101,
      "ĠT": 102,
      "hat": 103,
      "ĠA": 104,
      "Ġhe": 105,
      "ve": 106,
      "ot": 107,
      "Ġand": 108,
      "st": 109,
      "ow": 110,
      "ing": 111,
      "Ġof": 112,
      "an": 113,
      "om": 114,
      "Ġg": 115,
      "at": 116,
      "Ġbe": 117,
      "ĠW": 118,
      "se": 119,
      "Ġmy": 120,
      "Ġin": 121,
      "Ġha": 122,
      "ce": 123,
      "le": 124,
      "ay": 125,
      "ld": 126,
      "ir": 127,
      "et": 128,
      "ed": 129,
      "ut": 130,
      "ĠB": 131,
      "Ġme": 132,
      "im": 133,
      "ĠS": 134,
      "ith": 135,
      "Ġnot": 136,
      "'s": 137,
      "ĠH": 138,
      "ch": 139,
      "Ġthat": 140,
      "Ġis": 141,
      "ĠM": 142,
      "gh": 143,
      "ĠAnd": 144,
      "Ġfor": 145,
      "Ġu": 146,
      "ke": 147,
      "ĠC": 148,
      "Ġwe": 149,
      "our": 150,
      "oo": 151,
      "ill": 152,
      "Ġe": 153,
      "Ġwith": 154,
      "her": 155,
      "Ġit": 156,
      "ent": 157,
      "Ġyour": 158,
      "ad": 159,
      "ri": 160,
      "ĠO": 161,
      "Ġthou": 162,
      "Ġst": 163,
      "Ġk": 164,
      "ĠL": 165,
      "'d": 166,
      "ome": 167,
      "Ġhis": 168,
      "ĠF": 169,
      "ĠG": 170,
      "ght": 171,
      "EN": 172,
      "Ġre": 173,
      "ord": 174,
      "id": 175,
      "ra": 176,
      "ĠThe": 177,
      "Ġhave": 178,
      "Ġhim": 179,
      "IN": 180,
      "ly": 181,
      "Ġli": 182,
      "as": 183,
      "ĠP": 184,
      "Ġthis": 185,
      "ur": 186,
      "IO": 187,
      "al": 188,
      "Ġso": 189,
      "Ġas": 190,
      "Ġde": 191,
      "Ġon": 192,
      "ĠR": 193,
      "ore": 194,
      "ro": 195,
      "ĠN": 196,
      "hi": 197,
      "ould": 198,
      "ood": 199,
      "AR": 200,
      "ck": 201,
      "ain": 202,
      "ver": 203,
      "ĠY": 204,
      "est": 205,
      "Ġsha": 206,
      "Ġthy": 207,
      "ess": 208,
      "Ġwill": 209,
      "Ġdo": 210,
      "ea": 211,
      "Ġno": 212,
      "am": 213,
      "ĠE": 214,
      "Ġbut": 215,
      "ĠD": 216,
      "us": 217,
      "Ġse": 218,
      "US": 219,
      "if": 220,
      "Ġ'": 221,
      "ge": 222,
      "Ġall": 223,
      "and": 224,
      "ĠTh": 225,
      "Ġsu": 226,
      "ake": 227,
      "ĠTo": 228,
      "Ġher": 229,
      "ru": 230,
      "ion": 231,
      "Ġan": 232,
      "ĠK": 233,
      "Ġlo": 234,
      "ter": 235,
      "ard": 236,
      "han": 237,
      "Ġsp": 238,
      "ell": 239,
      "ear": 240,
      "Ġthee": 241,
      "Ġfa": 242,
      "Ġshall": 243,
      "Ġour": 244,
      "Ġby": 245,
      "th": 246,
      "UC": 247,
      "Ġare": 248,
      "il": 249,
      "ING": 250,
      "Ġne": 251,
      "Ġkn": 252,
      "rom": 253,
      "ho": 254,
      "Ġv": 255,
      "ĠThat": 256,
      "ER": 257,
      "OR": 258,
      "ast": 259,
      "ct": 260,
      "ous": 261,
      "Ġwhat": 262,
      "Ġsh": 263,
      "ight": 264,
      "ul": 265,
      "ET": 266,
      "ant": 267,
      "Ġup": 268,
      "Ġgood": 269,
      "sel": 270,
      "qu": 271,
      "ĠBut": 272,
      "art": 273,
      "row": 274,
      "ine": 275,
      "Ġcom": 276,
      "ath": 277,
      "Ġmu": 278,
      "Ġlord": 279,
      "hich": 280,
      "nt": 281,
      "Ġpr": 282,
      "Ġman": 283,
      "'ll": 284,
      "Ġat": 285,
      "ĠV": 286,
      "one": 287,
      "Ġwhe": 288,
      "Ġcon": 289,
      "ĠWhat": 290,
      "Ġam": 291,
      "end": 292,
      "ic": 293,
      "ES": 294,
      "ble": 295,
      "ry": 296,
      "Ġfrom": 297,
      "ong": 298,
      "ie": 299,
      "Ġshe": 300,
      "Ġbl": 301,
      "ive": 302,
      "ven": 303,
      "Ġgo": 304,
      "Ġmore": 305,
      "ĠFor": 306,
      "Ġthem": 307,
      "em": 308,
      "Ġwas": 309,
      "IC": 310,
      "out": 311,
      "au": 312,
      "Ġsir": 313,
      "other": 314,
      "are": 315,
      "oth": 316,
      "ol": 317,
      "Ġif": 318,
      "Ġnow": 319,
      "ĠHe": 320,
      "Ġhat": 321,
      "Ġthere": 322,
      "Ġwould": 323,
      "AN": 324,
      "ost": 325,
      "Ġknow": 326,
      "Ġcan": 327,
      "LO": 328,
      "ind": 329,
      "ers": 330,
      "IUS": 331,
      "ep": 332,
      "self": 333,
      "Ġsay": 334,
      "ARD": 335,
      "ĠKING": 336,
      "ather": 337,
      "ond": 338,
      "res": 339,
      "ate": 340,
      "fe": 341,
      "Ġsw": 342,
      "Ġhere": 343,
      "Ġlove": 344,
      "Ġtheir": 345,
      "Ġor": 346,
      "Ġthan": 347,
      "ĠMy": 348,
      "Ġbr": 349,
      "pp": 350,
      "--": 351,
      "Ġthey": 352,
      "Ġus": 353,
      "Ġking": 354,
      "Ġthen": 355,
      "all": 356,
      "Ġar": 357,
      "od": 358,
      "Ġlet": 359,
      "Ġun": 360,
      "ig": 361,
      "Ġwor": 362,
      "ure": 363,
      "ink": 364,
      "Ġmay": 365,
      "hy": 366,
      "Ġcome": 367,
      "ame": 368,
      "fore": 369,
      "ort": 370,
      "ĠAs": 371,
      "Ġqu": 372,
      "ook": 373,
      "Ġwell": 374,
      "el": 375,
      "ish": 376,
      "LI": 377,
      "ĠWhe": 378,
      "Ġj": 379,
      "KE": 380,
      "ves": 381,
      "Ġone": 382,
      "Ġhath": 383,
      "irst": 384,
      "Ġmake": 385,
      "ĠYou": 386,
      "Ġgra": 387,
      "reat": 388,
      "ak": 389,
      "ng": 390,
      "Ġmust": 391,
      "gain": 392,
      "ound": 393,
      "Ġwere": 394,
      "Ġho": 395,
      "Ġsee": 396,
      "Ġshould": 397,
      "Ġlike": 398,
      "ci": 399,
      "Ġpro": 400,
      "ue": 401,
      "eak": 402,
      "TIO": 403,
      "Ġsa": 404,
      "ity": 405,
      "Ġmad": 406,
      "Ġpl": 407,
      "Ġfather": 408,
      "Ġhad": 409,
      "um": 410,
      "Ġdid": 411,
      "Ġupon": 412,
      "OM": 413,
      "ime": 414,
      "pe": 415,
      "Ġtoo": 416,
      "ice": 417,
      "ON": 418,
      "ĠJ": 419,
      "Ġdis": 420,
      "ence": 421,
      "Ġdeath": 422,
      "ward": 423,
      "Ġwhich": 424,
      "Ġen": 425,
      "ĠIf": 426,
      "ose": 427,
      "own": 428,
      "Ġspeak": 429,
      "Ġpo": 430,
      "Ġwhen": 431,
      "ful": 432,
      "Ġout": 433,
      "Ġfri": 434,
      "Ġhow": 435,
      "entle": 436,
      "io": 437,
      "pt": 438,
      "un": 439,
      "Ġagain": 440,
      "ICH": 441,
      "ĠRICH": 442,
      "Ġtru": 443,
      "OL": 444,
      "UKE": 445,
      "de": 446,
      "ĠDUKE": 447,
      "man": 448,
      "Ġheart": 449,
      "Ġyet": 450,
      "ick": 451,
      "Ġhand": 452,
      "very": 453,
      "ĠWith": 454,
      "ĠRICHARD": 455,
      "Ġwho": 456,
      "ENTIO": 457,
      "ĠThou": 458,
      "Ġsome": 459,
      "ĠWe": 460,
      "ign": 461,
      "ance": 462,
      "ĠWhich": 463,
      "Ġmar": 464,
      "Ġhon": 465,
      "nce": 466,
      "ies": 467,
      "Ġr": 468,
      "Ġson": 469,
      "ĠIn": 470,
      "ire": 471,
      "Ġmine": 472,
      "Ġoff": 473,
      "ist": 474,
      "Ġal": 475,
      "ince": 476,
      "INC": 477,
      "har": 478,
      "orn": 479,
      "ack": 480,
      "ĠWhy": 481,
      "'t": 482,
      "wn": 483,
      "ĠOf": 484,
      "ĠGod": 485,
      "EL": 486,
      "Ġtime": 487,
      "Ġhea": 488,
      "Ġsuch": 489,
      "oy": 490,
      "ĠFirst": 491,
      "Ġhear": 492,
      "ĠSo": 493,
      "ness": 494,
      "Ġbrother": 495,
      "ec": 496,
      "Ġthese": 497,
      "ĠCl": 498,
      "Ġblood": 499,
      "Ġab": 500,
      "ither": 501,
      "Ġex": 502,
      "Ġgive": 503,
      "UE": 504,
      "Ġfo": 505,
      "ĠIs": 506,
      "Ġday": 507,
      "ĠNo": 508,
      "Ġear": 509,
      "Ġro": 510,
      "Ġlook": 511,
      "Ġthink": 512,
      "Ġtell": 513,
      "ĠII": 514,
      "ĠHow": 515,
      "Ġlife": 516,
      "TER": 517,
      "ise": 518,
      "Ġey": 519,
      "AB": 520,
      "eet": 521,
      "Ġwhere": 522,
      "Ġtake": 523,
      "Ġword": 524,
      "UCH": 525,
      "oul": 526,
      "Ġfriend": 527,
      "ther": 528,
      "ĠQ": 529,
      "ĠThis": 530,
      "ag": 531,
      "age": 532,
      "Ġdes": 533,
      "ĠGLO": 534,
      "UCES": 535,
      "ĠGLOUCES": 536,
      "ĠGLOUCESTER": 537,
      "ef": 538,
      "een": 539,
      "erv": 540,
      "ĠCome": 541,
      "ust": 542,
      "Ġgentle": 543,
      "ady": 544,
      "rown": 545,
      "ings": 546,
      "ĠLord": 547,
      "ĠU": 548,
      "Ġri": 549,
      "urse": 550,
      "ave": 551,
      "RY": 552,
      "ase": 553,
      "ĠRome": 554,
      "tis": 555,
      "Ġlea": 556,
      "ĠVINC": 557,
      "Ġart": 558,
      "UEEN": 559,
      "ĠQUEEN": 560,
      "ĠVINCENTIO": 561,
      "way": 562,
      "Ġwar": 563,
      "ĠOF": 564,
      "Ġmost": 565,
      "Ġhonour": 566,
      "Ġfl": 567,
      "ĠMar": 568,
      "Ġmuch": 569,
      "UM": 570,
      "LAN": 571,
      "Ġsl": 572,
      "ĠWhere": 573,
      "AM": 574,
      "urn": 575,
      "Ġmade": 576,
      "Ġtw": 577,
      "ment": 578,
      "Ġfear": 579,
      "Ġhast": 580,
      "ĠNow": 581,
      "ĠWho": 582,
      "Ġbet": 583,
      "ĠHEN": 584,
      "aught": 585,
      "ĠHENRY": 586,
      "Ġcou": 587,
      "Ġgreat": 588,
      "ĠBe": 589,
      "ber": 590,
      "not": 591,
      "Ġbre": 592,
      "ved": 593,
      "Ġnever": 594,
      "Ġfair": 595,
      "Ġnew": 596,
      "cc": 597,
      "ee": 598,
      "ss": 599,
      "Ġaf": 600,
      "ower": 601,
      "ap": 602,
      "igh": 603,
      "Ġmen": 604,
      "ĠAN": 605,
      "tle": 606,
      "orrow": 607,
      "ĠYour": 608,
      "aster": 609,
      "uke": 610,
      "ĠIt": 611,
      "iz": 612,
      "ough": 613,
      "ĠYOR": 614,
      "ĠYORK": 615,
      "Ġcall": 616,
      "Ġpart": 617,
      "Ġany": 618,
      "Ġra": 619,
      "ation": 620,
      "ĠOr": 621,
      "INIUS": 622,
      "ST": 623,
      "Ġad": 624,
      "ree": 625,
      "ide": 626,
      "Ġcomm": 627,
      "Ġcannot": 628,
      "Ġpre": 629,
      "Ġstand": 630,
      "Ġtrue": 631,
      "Ġheaven": 632,
      "Ġname": 633,
      "ĠPET": 634,
      "AU": 635,
      "Ġbeen": 636,
      "Ġpray": 637,
      "hing": 638,
      "old": 639,
      "Ġcl": 640,
      "Ġsweet": 641,
      "DW": 642,
      "Ġper": 643,
      "Ġple": 644,
      "ĠEDW": 645,
      "ĠEDWARD": 646,
      "ple": 647,
      "ĠGR": 648,
      ",--": 649,
      "Ġdoth": 650,
      "Ġnoble": 651,
      "Ġwr": 652,
      "Ġown": 653,
      "ears": 654,
      "ĠLUC": 655,
      "ouse": 656,
      "Ġdone": 657,
      "ĠThere": 658,
      "ull": 659,
      "Ġtr": 660,
      "Ġway": 661,
      "Ġother": 662,
      "Ġhead": 663,
      "ife": 664,
      "RO": 665,
      "aw": 666,
      "Ġmean": 667,
      "Ġpres": 668,
      "UT": 669,
      "Ġbear": 670,
      "ĠEd": 671,
      "Ġsc": 672,
      "red": 673,
      "Ġnor": 674,
      "AP": 675,
      "EO": 676,
      "Ġvery": 677,
      "Ġsoul": 678,
      "ĠAy": 679,
      "ĠROM": 680,
      "ĠWhen": 681,
      "ĠEdward": 682,
      "ĠROMEO": 683,
      "ving": 684,
      "Ġboth": 685,
      "Ġnight": 686,
      "ĠAn": 687,
      "Ġbefore": 688,
      "ĠMEN": 689,
      "ENIUS": 690,
      "ass": 691,
      "aint": 692,
      "Ġworld": 693,
      "ĠMENENIUS": 694,
      "ace": 695,
      "ger": 696,
      "ĠBy": 697,
      "ause": 698,
      "Ġqueen": 699,
      "li": 700,
      "ĠLet": 701,
      "TH": 702,
      "Ġmo": 703,
      "Ġchi": 704,
      "aughter": 705,
      "RUCH": 706,
      "ĠThen": 707,
      "ĠHere": 708,
      "ĠPETRUCH": 709,
      "ĠPETRUCHIO": 710,
      "able": 711,
      "Ġdown": 712,
      "Ġdead": 713,
      "Ġcont": 714,
      "TES": 715,
      "Ġapp": 716,
      "Ġwh": 717,
      "ite": 718,
      "Ġke": 719,
      "Ġbeing": 720,
      "Ġrem": 721,
      "per": 722,
      "Ġmyself": 723,
      "ab": 724,
      "les": 725,
      "ĠThan": 726,
      "ĠMAR": 727,
      "Ġbeg": 728,
      "Ġarm": 729,
      "Ġthus": 730,
      "ĠCOR": 731,
      "IOLAN": 732,
      "ilt": 733,
      "Ġleave": 734,
      "ĠCORIOLAN": 735,
      "ĠCORIOLANUS": 736,
      "ĠSec": 737,
      "Ġgrace": 738,
      "ĠSecond": 739,
      "Ġunt": 740,
      "ction": 741,
      "ĠNor": 742,
      "ress": 743,
      "Ġeyes": 744,
      "Ġim": 745,
      "Ġmother": 746,
      "ĠLE": 747,
      "less": 748,
      "Ġma": 749,
      "Ġold": 750,
      "land": 751,
      "ran": 752,
      "Ġrep": 753,
      "INA": 754,
      "itiz": 755,
      "Ġever": 756,
      "itizen": 757,
      "lo": 758,
      "ps": 759,
      "sw": 760,
      "Ġwife": 761,
      "Ġlong": 762,
      "Ġint": 763,
      "ĠShe": 764,
      "Ġlive": 765,
      "Ġchild": 766,
      "Ġwom": 767,
      "Ġpoor": 768,
      "Ġfriends": 769,
      "Ġaway": 770,
      "Ġcons": 771,
      "ĠIII": 772,
      "ĠGo": 773,
      "Ġmight": 774,
      "ford": 775,
      "nder": 776,
      "Ġdie": 777,
      "ĠSir": 778,
      "Ġstay": 779,
      "eace": 780,
      "Ġcomes": 781,
      "ks": 782,
      "wick": 783,
      "oud": 784,
      "atch": 785,
      "ĠWar": 786,
      "led": 787,
      "Ġmany": 788,
      "Ġru": 789,
      "Ġhouse": 790,
      "Ġrest": 791,
      "Ġcrown": 792,
      "Ġpe": 793,
      "ĠWarwick": 794,
      "ff": 795,
      "Ġcour": 796,
      "Ġle": 797,
      "ows": 798,
      "Tis": 799,
      "come": 800,
      "Ġent": 801,
      "ison": 802,
      "Ġhar": 803,
      "ĠHis": 804,
      "Ġthought": 805,
      "LA": 806,
      "SAB": 807,
      "ĠISAB": 808,
      "Ġlie": 809,
      "ELLA": 810,
      "ĠISABELLA": 811,
      "ian": 812,
      "uck": 813,
      "iss": 814,
      "erc": 815,
      "RAN": 816,
      "Ġset": 817,
      "Ġdaughter": 818,
      "che": 819,
      "ĠWell": 820,
      "Ġnothing": 821,
      "ĠRomeo": 822,
      "ULI": 823,
      "Ġtong": 824,
      "ors": 825,
      "atter": 826,
      "ONTES": 827,
      "ĠJULI": 828,
      "Ġbetter": 829,
      "ĠLEONTES": 830,
      "ĠJULIET": 831,
      "ittle": 832,
      "Ġgone": 833,
      "ĠSt": 834,
      "ĠNay": 835,
      "Ġprince": 836,
      "ĠVI": 837,
      "rant": 838,
      "AD": 839,
      "ought": 840,
      "Ġwit": 841,
      "int": 842,
      "ĠLAD": 843,
      "ĠLADY": 844,
      "AL": 845,
      "CE": 846,
      "well": 847,
      "Ġtri": 848,
      "ENCE": 849,
      "ied": 850,
      "me": 851,
      "ĠPro": 852,
      "Ġnews": 853,
      "Ġkeep": 854,
      "os": 855,
      "Ġsle": 856,
      "Ġbest": 857,
      "Ġres": 858,
      "Ġagainst": 859,
      "ces": 860,
      "for": 861,
      "ious": 862,
      "hall": 863,
      "Ġthose": 864,
      "ĠServ": 865,
      "ier": 866,
      "Ġacc": 867,
      "Ġlittle": 868,
      "Ġhence": 869,
      "Ġgri": 870,
      "ĠSIC": 871,
      "ĠCitizen": 872,
      "ool": 873,
      "Ġcomp": 874,
      "hard": 875,
      "ĠSICINIUS": 876,
      "Ġthing": 877,
      "Ġhour": 878,
      "ĠNot": 879,
      "Ġlords": 880,
      "ty": 881,
      "Ġput": 882,
      "ardon": 883,
      "Ġface": 884,
      "akes": 885,
      "une": 886,
      "lse": 887,
      "llow": 888,
      "sed": 889,
      "Ġend": 890,
      "ĠOn": 891,
      "Ġkind": 892,
      "EY": 893,
      "Ġyoung": 894,
      "Ġstill": 895,
      "ult": 896,
      "Ġtwo": 897,
      "ret": 898,
      "ork": 899,
      "ont": 900,
      "Ġpri": 901,
      "Ġhimself": 902,
      "ield": 903,
      "ud": 904,
      "Ġpur": 905,
      "Ġpower": 906,
      "alk": 907,
      "ĠThy": 908,
      "ĠLUCIO": 909,
      "ale": 910,
      "ins": 911,
      "ĠIV": 912,
      "ert": 913,
      "Ġcha": 914,
      "ĠRic": 915,
      "ĠRichard": 916,
      "ew": 917,
      "ĠCL": 918,
      "Ġsub": 919,
      "Ġtherefore": 920,
      "Ġcount": 921,
      "TI": 922,
      "cl": 923,
      "ft": 924,
      "iness": 925,
      "Ġfirst": 926,
      "Ġpeace": 927,
      "Ġgu": 928,
      "Ġelse": 929,
      "ried": 930,
      "Ġdear": 931,
      "cious": 932,
      "Ġunto": 933,
      "Ġtill": 934,
      "Ġsm": 935,
      "Ġduke": 936,
      "Ġcould": 937,
      "ĠWill": 938,
      "ĠBR": 939,
      "ĠHave": 940,
      "ason": 941,
      "hile": 942,
      "ail": 943,
      "ect": 944,
      "ile": 945,
      "Ġtra": 946,
      "Ġback": 947,
      "Ġco": 948,
      "Ġhus": 949,
      "uty": 950,
      "Ġthough": 951,
      "Ġwords": 952,
      "ZAB": 953,
      "Ġtre": 954,
      "Ġbid": 955,
      "Ġfell": 956,
      "Ġfind": 957,
      "Ġdre": 958,
      "ĠYork": 959,
      "ĠELI": 960,
      "Ġneed": 961,
      "ETH": 962,
      "Ġearth": 963,
      "Ġtongue": 964,
      "ZABETH": 965,
      "ĠELIZABETH": 966,
      "band": 967,
      "ius": 968,
      "ople": 969,
      "yal": 970,
      "Ġlady": 971,
      "Ġthine": 972,
      "IAN": 973,
      "men": 974,
      "Ġbra": 975,
      "orse": 976,
      "Ġhome": 977,
      "Ġhel": 978,
      "Ġforth": 979,
      "Ġseem": 980,
      "Ġhope": 981,
      "eech": 982,
      "ray": 983,
      "enry": 984,
      "ark": 985,
      "Ġhigh": 986,
      "eth": 987,
      "ĠHenry": 988,
      "ĠYet": 989,
      "Ġhusband": 990,
      "vere": 991,
      "ĠGood": 992,
      "Ġright": 993,
      "get": 994,
      "Ġchan": 995,
      "WIC": 996,
      "tw": 997,
      "Ġmind": 998,
      "Ġban": 999,
      "ĠWAR": 1000,
      "uth": 1001,
      "Ġpeople": 1002,
      "WICK": 1003,
      "ĠWARWICK": 1004,
      "AST": 1005,
      "ach": 1006,
      "ds": 1007,
      "ix": 1008,
      "rer": 1009,
      "ister": 1010,
      "Ġche": 1011,
      "Ġchar": 1012,
      "ĠAll": 1013,
      "ĠShall": 1014,
      "hip": 1015,
      "ĠDo": 1016,
      "Ġshow": 1017,
      "Ġconf": 1018,
      "ged": 1019,
      "Ġbri": 1020,
      "Ġhands": 1021,
      "HAM": 1022,
      "fort": 1023,
      "Ġmaster": 1024,
      "Ġwhy": 1025,
      "Ġcause": 1026,
      "ĠNurse": 1027,
      "Ġjoy": 1028,
      "Ġimp": 1029,
      "LET": 1030,
      "ULET": 1031,
      "Ġserv": 1032,
      "Ġmist": 1033,
      "Ġnone": 1034,
      "Ġlaw": 1035,
      "Ġgl": 1036,
      "ĠCAP": 1037,
      "ĠThey": 1038,
      "Ġonce": 1039,
      "Ġsaid": 1040,
      "ĠCAPULET": 1041,
      "Ġfort": 1042,
      "Ġevery": 1043,
      "GE": 1044,
      "IL": 1045,
      "MIO": 1046,
      "ren": 1047,
      "Ġbod": 1048,
      "ousin": 1049,
      "Ġbring": 1050,
      "RI": 1051,
      "bt": 1052,
      "Ġdou": 1053,
      "KING": 1054,
      "eed": 1055,
      "Ġpass": 1056,
      "ates": 1057,
      "ĠBUC": 1058,
      "Ġplease": 1059,
      "UTUS": 1060,
      "ĠBRUTUS": 1061,
      "KINGHAM": 1062,
      "ĠBUCKINGHAM": 1063,
      "BRO": 1064,
      "iet": 1065,
      "lt": 1066,
      "ĠTRAN": 1067,
      "ird": 1068,
      "ĠBOL": 1069,
      "ĠFrom": 1070,
      "Ġlight": 1071,
      "INGBRO": 1072,
      "ESS": 1073,
      "ĠTRANIO": 1074,
      "ĠBOLINGBRO": 1075,
      "ĠBOLINGBROKE": 1076,
      "eel": 1077,
      "vost": 1078,
      "Ġtears": 1079,
      "Ġwo": 1080,
      "Ġbes": 1081,
      "Ġnat": 1082,
      "Ġthr": 1083,
      "Ġwhose": 1084,
      "Ġroyal": 1085,
      "Ġpresent": 1086,
      "swer": 1087,
      "cle": 1088,
      "mb": 1089,
      "Ġsince": 1090,
      "Ġboy": 1091,
      "its": 1092,
      "Ġcame": 1093,
      "ary": 1094,
      "ĠOur": 1095,
      "Ġjust": 1096,
      "lf": 1097,
      "ock": 1098,
      "vy": 1099,
      "ory": 1100,
      "Ġfull": 1101,
      "Ġpardon": 1102,
      "Ġheard": 1103,
      "Ġunder": 1104,
      "Ġdev": 1105,
      "roke": 1106,
      "Ġafter": 1107,
      "Ġwrong": 1108,
      "GAR": 1109,
      "NE": 1110,
      "pose": 1111,
      "Ġland": 1112,
      "Ġhapp": 1113,
      "Ġplace": 1114,
      "ĠMARGAR": 1115,
      "ĠMARGARET": 1116,
      "ATH": 1117,
      "Ġmis": 1118,
      "Ġlast": 1119,
      "ens": 1120,
      "Ġere": 1121,
      "Ġstate": 1122,
      "ĠKing": 1123,
      "AMIL": 1124,
      "sand": 1125,
      "Ġsorrow": 1126,
      "Ġcare": 1127,
      "Ġmeet": 1128,
      "Ġkill": 1129,
      "Ġhold": 1130,
      "cent": 1131,
      "ition": 1132,
      "Ġthousand": 1133,
      "esty": 1134,
      "ORD": 1135,
      "Ġeye": 1136,
      "ĠANGE": 1137,
      "ĠGRE": 1138,
      "Ġwhom": 1139,
      "Ġhelp": 1140,
      "ĠANGELO": 1141,
      "Ġfal": 1142,
      "Ġless": 1143,
      "ARINA": 1144,
      "ĠEng": 1145,
      "Ġanswer": 1146,
      "arence": 1147,
      "Ġfollow": 1148,
      "SC": 1149,
      "Ġbus": 1150,
      "Ġfar": 1151,
      "Ġfool": 1152,
      "Ġch": 1153,
      "Ġhither": 1154,
      "Ġpat": 1155,
      "ceive": 1156,
      "irt": 1157,
      "ĠSh": 1158,
      "Ġweep": 1159,
      "Ġshame": 1160,
      "Ġsun": 1161,
      "ĠKATH": 1162,
      "selves": 1163,
      "cius": 1164,
      "Ġenem": 1165,
      "ĠClarence": 1166,
      "Ġabout": 1167,
      "ĠKATHARINA": 1168,
      "iol": 1169,
      "urde": 1170,
      "Ġfall": 1171,
      "Ġgentleman": 1172,
      "ĠMarcius": 1173,
      "Ġmaid": 1174,
      "day": 1175,
      "Ġob": 1176,
      "asure": 1177,
      "Ġinto": 1178,
      "Ġmakes": 1179,
      "Ġcousin": 1180,
      "ĠESC": 1181,
      "Ġhate": 1182,
      "Ġgracious": 1183,
      "ĠUn": 1184,
      "ĠUp": 1185,
      "Ġcoun": 1186,
      "Ġcourt": 1187,
      "ALUS": 1188,
      "Ġgrief": 1189,
      "ĠESCALUS": 1190,
      "air": 1191,
      "ject": 1192,
      "ĠAl": 1193,
      "imes": 1194,
      "Ġstri": 1195,
      "Ġwoman": 1196,
      "iv": 1197,
      "ove": 1198,
      "Ġturn": 1199,
      "ĠHath": 1200,
      "Ġstre": 1201,
      "Ġcomfort": 1202,
      "Ġworth": 1203,
      "ild": 1204,
      "ling": 1205,
      "Ġtalk": 1206,
      "Ġwilt": 1207,
      "ons": 1208,
      "Ġhum": 1209,
      "Ġbed": 1210,
      "alt": 1211,
      "Ġdost": 1212,
      "ĠDUCH": 1213,
      "ĠDuke": 1214,
      "ices": 1215,
      "deed": 1216,
      "Ġsleep": 1217,
      "urderer": 1218,
      "ĠDUCHESS": 1219,
      "pher": 1220,
      "ount": 1221,
      "itor": 1222,
      "Ġover": 1223,
      "Ġbel": 1224,
      "ERC": 1225,
      "ĠAnge": 1226,
      "Ġbody": 1227,
      "morrow": 1228,
      "Ġi": 1229,
      "Ġsound": 1230,
      "Ġbu": 1231,
      "Ġdra": 1232,
      "Ġinst": 1233,
      "ute": 1234,
      "ĠHer": 1235,
      "Ġfault": 1236,
      "Ġatt": 1237,
      "Ġthank": 1238,
      "ĠAngelo": 1239,
      "IA": 1240,
      "ience": 1241,
      "ised": 1242,
      "Ġindeed": 1243,
      "ĠCAMIL": 1244,
      "Ġanother": 1245,
      "Ġprove": 1246,
      "Ġplay": 1247,
      "Ġadv": 1248,
      "Ġfalse": 1249,
      "ĠCAMILLO": 1250,
      "ily": 1251,
      "Ġser": 1252,
      "omet": 1253,
      "ĠWould": 1254,
      "Ġhas": 1255,
      "Ġuse": 1256,
      "Ġwel": 1257,
      "Ġret": 1258,
      "Ġdeed": 1259,
      "ĠEven": 1260,
      "Ġvo": 1261,
      "ieve": 1262,
      "Ġsword": 1263,
      "ĠProvost": 1264,
      "Ġfellow": 1265,
      "TEN": 1266,
      "Ġmatter": 1267,
      "Ġbo": 1268,
      "Ġfight": 1269,
      "Ġpers": 1270,
      "ans": 1271,
      "ĠHOR": 1272,
      "illain": 1273,
      "Ġeven": 1274,
      "ade": 1275,
      "Ġfortune": 1276,
      "TENS": 1277,
      "ĠHORTENS": 1278,
      "Ġsent": 1279,
      "ĠFRI": 1280,
      "Ġsovere": 1281,
      "hold": 1282,
      "Ġprison": 1283,
      "Ġgrave": 1284,
      "Ġcountry": 1285,
      "ĠUpon": 1286,
      "ĠHORTENSIO": 1287,
      "ĠFRIAR": 1288,
      ",'": 1289,
      "eal": 1290,
      "Ġmerc": 1291,
      "Ġdan": 1292,
      "Ġcur": 1293,
      "Ġyears": 1294,
      "ĠAre": 1295,
      "ĠBAP": 1296,
      "ury": 1297,
      "Ġsend": 1298,
      "Ġvirt": 1299,
      "Ġrather": 1300,
      "STA": 1301,
      "TISTA": 1302,
      "Ġbanish": 1303,
      "Ġdoubt": 1304,
      "ĠBAPTISTA": 1305,
      "CUS": 1306,
      "YCUS": 1307,
      "mp": 1308,
      "ouch": 1309,
      "Ġwant": 1310,
      "Ġwish": 1311,
      "ĠTy": 1312,
      "ĠAUT": 1313,
      "Ġgr": 1314,
      "Ġhang": 1315,
      "ĠCOM": 1316,
      "Ġreven": 1317,
      "Ġass": 1318,
      "fect": 1319,
      "pect": 1320,
      "OLYCUS": 1321,
      "Ġtruth": 1322,
      "Ġbusiness": 1323,
      "ĠAUTOLYCUS": 1324,
      "ĠCOMINIUS": 1325,
      ".'": 1326,
      "dd": 1327,
      "ĠAt": 1328,
      "ĠMore": 1329,
      "Ġreason": 1330,
      "Ġlies": 1331,
      "Ġonly": 1332,
      "ARENCE": 1333,
      "Ġshalt": 1334,
      "ĠThird": 1335,
      "Ġdisc": 1336,
      "ĠCLARENCE": 1337,
      "ere": 1338,
      "ior": 1339,
      "ms": 1340,
      "pen": 1341,
      "rance": 1342,
      "Ġsea": 1343,
      "Ġcra": 1344,
      "Ġstra": 1345,
      "ENES": 1346,
      "Ġbreath": 1347,
      "Ġcommand": 1348,
      "Ġarms": 1349,
      "Ġdream": 1350,
      "pherd": 1351,
      "VOL": 1352,
      "der": 1353,
      "Ġlay": 1354,
      "ener": 1355,
      "Ġprom": 1356,
      "Ġgi": 1357,
      "ĠBEN": 1358,
      "Ġstran": 1359,
      "ĠGentle": 1360,
      "ĠNOR": 1361,
      "Ġsec": 1362,
      "ĠClown": 1363,
      "VOLIO": 1364,
      "ĠBENVOLIO": 1365,
      "PER": 1366,
      "SPER": 1367,
      "Ġsen": 1368,
      "Ġsomet": 1369,
      "Ġwind": 1370,
      "Ġpity": 1371,
      "ĠTake": 1372,
      "ĠPRO": 1373,
      "Ġproud": 1374,
      "Ġholy": 1375,
      "Ġenough": 1376,
      "UMIO": 1377,
      "ĠGRUMIO": 1378,
      "Ġcontent": 1379,
      "Ġremem": 1380,
      "SPERO": 1381,
      "ĠPROSPERO": 1382,
      "UTIO": 1383,
      "ia": 1384,
      "ken": 1385,
      "ten": 1386,
      "hed": 1387,
      "Ġdare": 1388,
      "Ġthree": 1389,
      "ator": 1390,
      "Ġbea": 1391,
      "ĠSu": 1392,
      "ĠMurderer": 1393,
      "ĠMERC": 1394,
      "Ġlives": 1395,
      "Ġsold": 1396,
      "ĠDid": 1397,
      "ĠKate": 1398,
      "Ġspir": 1399,
      "Ġfare": 1400,
      "Ġswear": 1401,
      "ĠMERCUTIO": 1402,
      "IS": 1403,
      "ike": 1404,
      "Ġtend": 1405,
      "Ġget": 1406,
      "eter": 1407,
      "Ġwithin": 1408,
      "Ġdep": 1409,
      "Ġvillain": 1410,
      "Ġgods": 1411,
      "ĠWere": 1412,
      "ĠLUCENTIO": 1413,
      "ĠServant": 1414,
      "Ġnature": 1415,
      "Ġwelcome": 1416,
      "Ġsister": 1417,
      "ham": 1418,
      "Ġfoul": 1419,
      "Ġfree": 1420,
      "Ġthings": 1421,
      "ars": 1422,
      "Ġgre": 1423,
      "Ġkiss": 1424,
      "ĠPOM": 1425,
      "ester": 1426,
      "Ġsaw": 1427,
      "Ġmadam": 1428,
      "LAND": 1429,
      "Ġmistress": 1430,
      "Ġhappy": 1431,
      "Ġsovereign": 1432,
      "ĠPOMP": 1433,
      "LINA": 1434,
      "apt": 1435,
      "ient": 1436,
      "unt": 1437,
      "hal": 1438,
      "Ġcity": 1439,
      "Ġyield": 1440,
      "any": 1441,
      "ĠWas": 1442,
      "ĠGive": 1443,
      "ĠPAU": 1444,
      "vers": 1445,
      "Ġbreak": 1446,
      "Ġmeans": 1447,
      "Ġsubject": 1448,
      "Ġbeseech": 1449,
      "ĠPAULINA": 1450,
      "Ġaw": 1451,
      "Ġmer": 1452,
      "Ġborn": 1453,
      "ery": 1454,
      "Ġden": 1455,
      "Ġhorse": 1456,
      "Ġoath": 1457,
      "ĠSay": 1458,
      "Ġyours": 1459,
      "ĠLook": 1460,
      "onder": 1461,
      "gainst": 1462,
      "ague": 1463,
      "eft": 1464,
      "gether": 1465,
      "ĠGREMIO": 1466,
      "ĠPOMPEY": 1467,
      "NIA": 1468,
      "OLI": 1469,
      "XENES": 1470,
      "balt": 1471,
      "Ġtem": 1472,
      "Ġwound": 1473,
      "Ġwhile": 1474,
      "Ġfire": 1475,
      "Ġdru": 1476,
      "anc": 1477,
      "ĠCom": 1478,
      "Ġyourself": 1479,
      "ĠPOLI": 1480,
      "usic": 1481,
      "Ġsupp": 1482,
      "Ġfaith": 1483,
      "ĠVOL": 1484,
      "Ġbloody": 1485,
      "Ġlooks": 1486,
      "UMNIA": 1487,
      "ches": 1488,
      "ĠEngland": 1489,
      "ĠPOLIXENES": 1490,
      "ĠVOLUMNIA": 1491,
      "ey": 1492,
      "ues": 1493,
      "Ġsit": 1494,
      "Ġwin": 1495,
      "Ġcar": 1496,
      "Ġcond": 1497,
      "enger": 1498,
      "ingman": 1499,
      "ĠHAST": 1500,
      "ĠFare": 1501,
      "Ġrequ": 1502,
      "Ġspo": 1503,
      "INGS": 1504,
      "Ġcommon": 1505,
      "Ġmaj": 1506,
      "ĠServingman": 1507,
      "Ġtraitor": 1508,
      "centio": 1509,
      "ĠHASTINGS": 1510,
      "RENCE": 1511,
      "by": 1512,
      "broke": 1513,
      "rong": 1514,
      "Ġmon": 1515,
      "Ġlam": 1516,
      "ĠHast": 1517,
      "ĠMay": 1518,
      "ĠCan": 1519,
      "ĠLAU": 1520,
      "Ġdef": 1521,
      "essenger": 1522,
      "Ġuncle": 1523,
      "Ġmark": 1524,
      "Ġchildren": 1525,
      "ertain": 1526,
      "ĠLAURENCE": 1527,
      "BY": 1528,
      "BER": 1529,
      "Ġsight": 1530,
      "Ġmet": 1531,
      "Ġlate": 1532,
      "Ġleft": 1533,
      "ĠAh": 1534,
      "Ġbeat": 1535,
      "Ġsoon": 1536,
      "Ġval": 1537,
      "ĠJul": 1538,
      "ĠTherefore": 1539,
      "form": 1540,
      "Ġdanger": 1541,
      "ĠTybalt": 1542,
      "Ġtender": 1543,
      "Ġmajesty": 1544,
      "FF": 1545,
      "use": 1546,
      "Ġsin": 1547,
      "Ġtold": 1548,
      "ĠSp": 1549,
      "Ġseen": 1550,
      "Ġsure": 1551,
      "LIFF": 1552,
      "Ġsave": 1553,
      "Ġfoot": 1554,
      "Ġdays": 1555,
      "Ġwarrant": 1556,
      "UMBER": 1557,
      "like": 1558,
      "THUMBER": 1559,
      "Ġwoe": 1560,
      "ĠNORTHUMBER": 1561,
      "ĠNORTHUMBERLAND": 1562,
      "ID": 1563,
      "TA": 1564,
      "ting": 1565,
      "Ġsad": 1566,
      "rem": 1567,
      "Ġgener": 1568,
      "ĠLu": 1569,
      "ides": 1570,
      "idow": 1571,
      "ĠPl": 1572,
      "Ġdoes": 1573,
      "Ġreport": 1574,
      "Ġreturn": 1575,
      "Ġmercy": 1576,
      "Ġfarewell": 1577,
      "dom": 1578,
      "ring": 1579,
      "up": 1580,
      "hes": 1581,
      "rel": 1582,
      "Ġtogether": 1583,
      "Ġwithout": 1584,
      "Ġdeep": 1585,
      "ters": 1586,
      "earn": 1587,
      "Ġgold": 1588,
      "unes": 1589,
      "ĠThough": 1590,
      "Ġmarry": 1591,
      "Ġheavy": 1592,
      "ĠANNE": 1593,
      "Ġpurpose": 1594,
      "Ġthrough": 1595,
      "RINC": 1596,
      "aim": 1597,
      "bl": 1598,
      "ca": 1599,
      "cher": 1600,
      "ict": 1601,
      "vent": 1602,
      "Ġill": 1603,
      "Ġcho": 1604,
      "Ġcold": 1605,
      "Ġnurse": 1606,
      "Ġgrow": 1607,
      "ĠHad": 1608,
      "ĠMont": 1609,
      "Ġrec": 1610,
      "ĠPRINC": 1611,
      "ifford": 1612,
      "Ġlost": 1613,
      "ERD": 1614,
      "ignior": 1615,
      "ĠClifford": 1616,
      "Ġears": 1617,
      "Ġdeser": 1618,
      "ments": 1619,
      "Ġperson": 1620,
      "Ġstrange": 1621,
      "ĠJuliet": 1622,
      "ĠPRINCE": 1623,
      "az": 1624,
      "mer": 1625,
      "Ġtimes": 1626,
      "Ġwat": 1627,
      "oriol": 1628,
      "ĠTell": 1629,
      "ingbroke": 1630,
      "ceed": 1631,
      "ĠBol": 1632,
      "ĠMI": 1633,
      "ĠCam": 1634,
      "ours": 1635,
      "enty": 1636,
      "Ġask": 1637,
      "ĠRi": 1638,
      "ross": 1639,
      "Ġthyself": 1640,
      "ush": 1641,
      "Ġsuff": 1642,
      "Ġpluck": 1643,
      "Ġdisp": 1644,
      "Ġliege": 1645,
      "Ġbelieve": 1646,
      "Ġspirit": 1647,
      "ĠBolingbroke": 1648,
      "ever": 1649,
      "Ġair": 1650,
      "Ġage": 1651,
      "Ġsil": 1652,
      "Ġlearn": 1653,
      "ĠAway": 1654,
      "Ġheir": 1655,
      "ĠWh": 1656,
      "ets": 1657,
      "ĠSome": 1658,
      "ĠSignior": 1659,
      "ĠHa": 1660,
      "ains": 1661,
      "ift": 1662,
      "Ġloss": 1663,
      "Ġsays": 1664,
      "Ġjo": 1665,
      "Ġpoint": 1666,
      "ĠWhose": 1667,
      "ĠOne": 1668,
      "ĠShould": 1669,
      "aid": 1670,
      "ial": 1671,
      "ner": 1672,
      "Ġbat": 1673,
      "Ġfly": 1674,
      "Ġcry": 1675,
      "Ġpast": 1676,
      "ced": 1677,
      "ĠCoriol": 1678,
      "Ġfriar": 1679,
      "Ġtrust": 1680,
      "Ġdesire": 1681,
      "Ġhaste": 1682,
      "Ġentreat": 1683,
      "Ġjustice": 1684,
      "Ġdevil": 1685,
      "Ġinstru": 1686,
      "Ġground": 1687,
      "ĠFarewell": 1688,
      "gu": 1689,
      "ges": 1690,
      "night": 1691,
      "sh": 1692,
      "Ġord": 1693,
      "outh": 1694,
      "Ġmur": 1695,
      "ina": 1696,
      "ined": 1697,
      "Ġbold": 1698,
      "Ġfound": 1699,
      "Ġnear": 1700,
      "Ġtoward": 1701,
      "ĠSen": 1702,
      "ĠLike": 1703,
      "ĠFrance": 1704,
      "ĠPray": 1705,
      "Ġfast": 1706,
      "Ġvis": 1707,
      "aud": 1708,
      "aking": 1709,
      "Ġslain": 1710,
      "Ġbetw": 1711,
      "ixt": 1712,
      "Ġservice": 1713,
      "Ġstraight": 1714,
      "Ġremember": 1715,
      "FID": 1716,
      "IZ": 1717,
      "LE": 1718,
      "LOR": 1719,
      "UFID": 1720,
      "Ġcurse": 1721,
      "ĠAUFID": 1722,
      "oman": 1723,
      "ution": 1724,
      "ĠMessenger": 1725,
      "Ġwear": 1726,
      "Ġstrong": 1727,
      "ĠFLOR": 1728,
      "ĠGl": 1729,
      "ĠThese": 1730,
      "Ġquick": 1731,
      "Ġmarried": 1732,
      "Ġalone": 1733,
      "Ġhard": 1734,
      "Ġworthy": 1735,
      "Ġbeauty": 1736,
      "IZEL": 1737,
      "ĠAUFIDIUS": 1738,
      "ĠFLORIZEL": 1739,
      "TON": 1740,
      "ning": 1741,
      "xt": 1742,
      "Ġtouch": 1743,
      "Ġwoo": 1744,
      "Ġfit": 1745,
      "ithe": 1746,
      "Ġhu": 1747,
      "Ġopen": 1748,
      "Ġgrant": 1749,
      "Ġbec": 1750,
      "let": 1751,
      "ĠSee": 1752,
      "adam": 1753,
      "Ġready": 1754,
      "ION": 1755,
      "Ġbrought": 1756,
      "ured": 1757,
      "Ġposs": 1758,
      "ĠClaud": 1759,
      "Ġexec": 1760,
      "Ġrun": 1761,
      "Ġenemy": 1762,
      "Ġrevenge": 1763,
      "Ġgeneral": 1764,
      "ĠClaudio": 1765,
      "!'": 1766,
      "bs": 1767,
      "gs": 1768,
      "ible": 1769,
      "Ġfur": 1770,
      "Ġduty": 1771,
      "Ġyouth": 1772,
      "Ġinc": 1773,
      "Ġinf": 1774,
      "cept": 1775,
      "Ġiss": 1776,
      "Ġitself": 1777,
      "Ġdeli": 1778,
      "Ġlose": 1779,
      "ERS": 1780,
      "aunt": 1781,
      "Ġknows": 1782,
      "Ġcanst": 1783,
      "inks": 1784,
      "Ġquar": 1785,
      "Ġprof": 1786,
      "umber": 1787,
      "Ġthoughts": 1788,
      "Ġhours": 1789,
      "Ġcharge": 1790,
      "Ġconfess": 1791,
      "ĠGentleman": 1792,
      "ĠSenator": 1793,
      "AS": 1794,
      "BAST": 1795,
      "CIUS": 1796,
      "EBAST": 1797,
      "cester": 1798,
      "pl": 1799,
      "ship": 1800,
      "ua": 1801,
      "vo": 1802,
      "Ġmorn": 1803,
      "Ġfeel": 1804,
      "Ġpar": 1805,
      "ĠAgainst": 1806,
      "ĠBec": 1807,
      "ĠSEBAST": 1808,
      "ĠMaster": 1809,
      "ĠMadam": 1810,
      "illo": 1811,
      "riage": 1812,
      "Ġread": 1813,
      "Ġdel": 1814,
      "Ġspeed": 1815,
      "Ġdesp": 1816,
      "Ġtwenty": 1817,
      "Ġstands": 1818,
      "ĠMARCIUS": 1819,
      "ĠShepherd": 1820,
      "ched": 1821,
      "Ġstreng": 1822,
      "ĠMontague": 1823,
      "ĠGlou": 1824,
      "ithee": 1825,
      "ĠSEBASTIAN": 1826,
      "OW": 1827,
      "cess": 1828,
      "eep": 1829,
      "op": 1830,
      "ted": 1831,
      "Ġfore": 1832,
      "Ġfield": 1833,
      "Ġdiv": 1834,
      "Ġpost": 1835,
      "Ġhell": 1836,
      "ingham": 1837,
      "Ġbehold": 1838,
      "Ġhalf": 1839,
      "oop": 1840,
      "ĠPr": 1841,
      "olk": 1842,
      "fection": 1843,
      "Ġjud": 1844,
      "ump": 1845,
      "Ġfearful": 1846,
      "Ġmock": 1847,
      "Ġresol": 1848,
      "Ġcounsel": 1849,
      "ĠCamillo": 1850,
      "DEL": 1851,
      "no": 1852,
      "Ġter": 1853,
      "Ġmin": 1854,
      "Ġwret": 1855,
      "Ġbound": 1856,
      "Ġbos": 1857,
      "Ġdam": 1858,
      "Ġcut": 1859,
      "Ġye": 1860,
      "ĠTill": 1861,
      "ĠBo": 1862,
      "ĠBuck": 1863,
      "ĠBION": 1864,
      "Ġeach": 1865,
      "ads": 1866,
      "alm": 1867,
      "Ġshort": 1868,
      "ĠVol": 1869,
      "Ġknown": 1870,
      "Ġwork": 1871,
      "ortal": 1872,
      "Ġhearts": 1873,
      "Ġmarriage": 1874,
      "Ġhonest": 1875,
      "Ġtrib": 1876,
      "ĠHastings": 1877,
      "ĠGloucester": 1878,
      "DELLO": 1879,
      "Ġbosom": 1880,
      "ĠBuckingham": 1881,
      "ĠBIONDELLO": 1882,
      "folk": 1883,
      "iers": 1884,
      "of": 1885,
      "pare": 1886,
      "sc": 1887,
      "the": 1888,
      "Ġve": 1889,
      "Ġtit": 1890,
      "Ġten": 1891,
      "Ġtale": 1892,
      "Ġwhi": 1893,
      "Ġwonder": 1894,
      "Ġwidow": 1895,
      "Ġbit": 1896,
      "ones": 1897,
      "Ġdish": 1898,
      "ench": 1899,
      "ĠCap": 1900,
      "rah": 1901,
      "ĠThus": 1902,
      "Ġsuit": 1903,
      "Ġseek": 1904,
      "ĠNorfolk": 1905,
      "Ġwomen": 1906,
      "Ġharm": 1907,
      "Ġcompany": 1908,
      "Ġguilt": 1909,
      "Ġhighness": 1910,
      "Ġstrike": 1911,
      "Ġdraw": 1912,
      "Ġattend": 1913,
      "Ġserve": 1914,
      "Ġvoices": 1915,
      "Ġsomething": 1916,
      "Ġmurder": 1917,
      "ĠVols": 1918,
      "OP": 1919,
      "Tw": 1920,
      "hood": 1921,
      "most": 1922,
      "Ġag": 1923,
      "Ġsing": 1924,
      "Ġsat": 1925,
      "Ġside": 1926,
      "Ġwatch": 1927,
      "Ġbur": 1928,
      "ished": 1929,
      "Ġcor": 1930,
      "ĠAUM": 1931,
      "ĠCA": 1932,
      "ander": 1933,
      "Ġloving": 1934,
      "Ġknew": 1935,
      "ERLE": 1936,
      "Ġdidst": 1937,
      "Ġdist": 1938,
      "Ġgentlemen": 1939,
      "ĠANTON": 1940,
      "Ġpret": 1941,
      "Ġheavens": 1942,
      "Ġchange": 1943,
      "ĠLucentio": 1944,
      "Ġstrength": 1945,
      "ĠAUMERLE": 1946,
      "ĠANTONIO": 1947,
      "ALO": 1948,
      "ZALO": 1949,
      "Ġact": 1950,
      "Ġsake": 1951,
      "Ġwast": 1952,
      "ĠTran": 1953,
      "ĠWel": 1954,
      "ĠBian": 1955,
      "ents": 1956,
      "Ġstir": 1957,
      "ĠLanc": 1958,
      "ĠGON": 1959,
      "ĠPet": 1960,
      "ĠMarry": 1961,
      "Ġaff": 1962,
      "Ġcloud": 1963,
      "Ġpleasure": 1964,
      "Ġenter": 1965,
      "Ġbrave": 1966,
      "ethinks": 1967,
      "Ġenemies": 1968,
      "ĠLancaster": 1969,
      "ĠGONZALO": 1970,
      "bly": 1971,
      "fid": 1972,
      "ives": 1973,
      "Ġty": 1974,
      "Ġsign": 1975,
      "Ġmusic": 1976,
      "Ġwa": 1977,
      "rew": 1978,
      "Ġbreat": 1979,
      "Ġdr": 1980,
      "Ġpra": 1981,
      "Ġpie": 1982,
      "Ġpale": 1983,
      "Ġgar": 1984,
      "Ġgates": 1985,
      "ĠSw": 1986,
      "ĠHER": 1987,
      "ĠMost": 1988,
      "oose": 1989,
      "ĠLady": 1990,
      "ĠPom": 1991,
      "ils": 1992,
      "Ġnext": 1993,
      "Ġcoming": 1994,
      "Ġthanks": 1995,
      "Ġext": 1996,
      "ĠUnt": 1997,
      "Ġclose": 1998,
      "Ġsouls": 1999
    },
    "merges": [
      [
        "Ġ",
        "t"
      ],
      [
        "h",
        "e"
      ],
      [
        "Ġ",
        "a"
      ],
      [
        "o",
        "u"
      ],
      [
        "Ġ",
        "s"
      ],
      [
        "Ġ",
        "m"
      ],
      [
        "Ġ",
        "w"
      ],
      [
        "i",
        "n"
      ],
      [
        "r",
        "e"
      ],
      [
        "h",
        "a"
      ],
      [
        "Ġt",
        "he"
      ],
      [
        "n",
        "d"
      ],
      [
        "Ġ",
        "b"
      ],
      [
        "i",
        "s"
      ],
      [
        "o",
        "r"
      ],
      [
        "Ġ",
        "Ċ"
      ],
      [
        "Ġ",
        "f"
      ],
      [
        "Ġ",
        "I"
      ],
      [
        "e",
        "r"
      ],
      [
        "l",
        "l"
      ],
      [
        "i",
        "t"
      ],
      [
        "o",
        "n"
      ],
      [
        "Ġ",
        "d"
      ],
      [
        "Ġ",
        "c"
      ],
      [
        "Ġ",
        "n"
      ],
      [
        "Ġ",
        "l"
      ],
      [
        "Ġ",
        "y"
      ],
      [
        "e",
        "s"
      ],
      [
        "e",
        "n"
      ],
      [
        "Ġt",
        "h"
      ],
      [
        "a",
        "r"
      ],
      [
        "Ġ",
        "h"
      ],
      [
        "Ġ",
        "o"
      ],
      [
        "Ġt",
        "o"
      ],
      [
        "Ġy",
        "ou"
      ],
      [
        "Ġ",
        "p"
      ],
      [
        "Ġ",
        "T"
      ],
      [
        "ha",
        "t"
      ],
      [
        "Ġ",
        "A"
      ],
      [
        "Ġ",
        "he"
      ],
      [
        "v",
        "e"
      ],
      [
        "o",
        "t"
      ],
      [
        "Ġa",
        "nd"
      ],
      [
        "s",
        "t"
      ],
      [
        "o",
        "w"
      ],
      [
        "in",
        "g"
      ],
      [
        "Ġo",
        "f"
      ],
      [
        "a",
        "n"
      ],
      [
        "o",
        "m"
      ],
      [
        "Ġ",
        "g"
      ],
      [
        "a",
        "t"
      ],
      [
        "Ġb",
        "e"
      ],
      [
        "Ġ",
        "W"
      ],
      [
        "s",
        "e"
      ],
      [
        "Ġm",
        "y"
      ],
      [
        "Ġ",
        "in"
      ],
      [
        "Ġ",
        "ha"
      ],
      [
        "c",
        "e"
      ],
      [
        "l",
        "e"
      ],
      [
        "a",
        "y"
      ],
      [
        "l",
        "d"
      ],
      [
        "i",
        "r"
      ],
      [
        "e",
        "t"
      ],
      [
        "e",
        "d"
      ],
      [
        "u",
        "t"
      ],
      [
        "Ġ",
        "B"
      ],
      [
        "Ġm",
        "e"
      ],
      [
        "i",
        "m"
      ],
      [
        "Ġ",
        "S"
      ],
      [
        "it",
        "h"
      ],
      [
        "Ġn",
        "ot"
      ],
      [
        "'",
        "s"
      ],
      [
        "Ġ",
        "H"
      ],
      [
        "c",
        "h"
      ],
      [
        "Ġt",
        "hat"
      ],
      [
        "Ġ",
        "is"
      ],
      [
        "Ġ",
        "M"
      ],
      [
        "g",
        "h"
      ],
      [
        "ĠA",
        "nd"
      ],
      [
        "Ġf",
        "or"
      ],
      [
        "Ġ",
        "u"
      ],
      [
        "k",
        "e"
      ],
      [
        "Ġ",
        "C"
      ],
      [
        "Ġw",
        "e"
      ],
      [
        "ou",
        "r"
      ],
      [
        "o",
        "o"
      ],
      [
        "i",
        "ll"
      ],
      [
        "Ġ",
        "e"
      ],
      [
        "Ġw",
        "ith"
      ],
      [
        "he",
        "r"
      ],
      [
        "Ġ",
        "it"
      ],
      [
        "en",
        "t"
      ],
      [
        "Ġyou",
        "r"
      ],
      [
        "a",
        "d"
      ],
      [
        "r",
        "i"
      ],
      [
        "Ġ",
        "O"
      ],
      [
        "Ġth",
        "ou"
      ],
      [
        "Ġs",
        "t"
      ],
      [
        "Ġ",
        "k"
      ],
      [
        "Ġ",
        "L"
      ],
      [
        "'",
        "d"
      ],
      [
        "om",
        "e"
      ],
      [
        "Ġh",
        "is"
      ],
      [
        "Ġ",
        "F"
      ],
      [
        "Ġ",
        "G"
      ],
      [
        "gh",
        "t"
      ],
      [
        "E",
        "N"
      ],
      [
        "Ġ",
        "re"
      ],
      [
        "or",
        "d"
      ],
      [
        "i",
        "d"
      ],
      [
        "r",
        "a"
      ],
      [
        "ĠT",
        "he"
      ],
      [
        "Ġha",
        "ve"
      ],
      [
        "Ġh",
        "im"
      ],
      [
        "I",
        "N"
      ],
      [
        "l",
        "y"
      ],
      [
        "Ġl",
        "i"
      ],
      [
        "a",
        "s"
      ],
      [
        "Ġ",
        "P"
      ],
      [
        "Ġth",
        "is"
      ],
      [
        "u",
        "r"
      ],
      [
        "I",
        "O"
      ],
      [
        "a",
        "l"
      ],
      [
        "Ġs",
        "o"
      ],
      [
        "Ġa",
        "s"
      ],
      [
        "Ġd",
        "e"
      ],
      [
        "Ġ",
        "on"
      ],
      [
        "Ġ",
        "R"
      ],
      [
        "o",
        "re"
      ],
      [
        "r",
        "o"
      ],
      [
        "Ġ",
        "N"
      ],
      [
        "h",
        "i"
      ],
      [
        "ou",
        "ld"
      ],
      [
        "oo",
        "d"
      ],
      [
        "A",
        "R"
      ],
      [
        "c",
        "k"
      ],
      [
        "a",
        "in"
      ],
      [
        "v",
        "er"
      ],
      [
        "Ġ",
        "Y"
      ],
      [
        "es",
        "t"
      ],
      [
        "Ġs",
        "ha"
      ],
      [
        "Ġth",
        "y"
      ],
      [
        "es",
        "s"
      ],
      [
        "Ġw",
        "ill"
      ],
      [
        "Ġd",
        "o"
      ],
      [
        "e",
        "a"
      ],
      [
        "Ġn",
        "o"
      ],
      [
        "a",
        "m"
      ],
      [
        "Ġ",
        "E"
      ],
      [
        "Ġb",
        "ut"
      ],
      [
        "Ġ",
        "D"
      ],
      [
        "u",
        "s"
      ],
      [
        "Ġs",
        "e"
      ],
      [
        "U",
        "S"
      ],
      [
        "i",
        "f"
      ],
      [
        "Ġ",
        "'"
      ],
      [
        "g",
        "e"
      ],
      [
        "Ġa",
        "ll"
      ],
      [
        "a",
        "nd"
      ],
      [
        "ĠT",
        "h"
      ],
      [
        "Ġs",
        "u"
      ],
      [
        "a",
        "ke"
      ],
      [
        "ĠT",
        "o"
      ],
      [
        "Ġhe",
        "r"
      ],
      [
        "r",
        "u"
      ],
      [
        "i",
        "on"
      ],
      [
        "Ġa",
        "n"
      ],
      [
        "Ġ",
        "K"
      ],
      [
        "Ġl",
        "o"
      ],
      [
        "t",
        "er"
      ],
      [
        "ar",
        "d"
      ],
      [
        "ha",
        "n"
      ],
      [
        "Ġs",
        "p"
      ],
      [
        "e",
        "ll"
      ],
      [
        "e",
        "ar"
      ],
      [
        "Ġthe",
        "e"
      ],
      [
        "Ġf",
        "a"
      ],
      [
        "Ġsha",
        "ll"
      ],
      [
        "Ġ",
        "our"
      ],
      [
        "Ġb",
        "y"
      ],
      [
        "t",
        "h"
      ],
      [
        "U",
        "C"
      ],
      [
        "Ġa",
        "re"
      ],
      [
        "i",
        "l"
      ],
      [
        "IN",
        "G"
      ],
      [
        "Ġn",
        "e"
      ],
      [
        "Ġk",
        "n"
      ],
      [
        "r",
        "om"
      ],
      [
        "h",
        "o"
      ],
      [
        "Ġ",
        "v"
      ],
      [
        "ĠT",
        "hat"
      ],
      [
        "E",
        "R"
      ],
      [
        "O",
        "R"
      ],
      [
        "a",
        "st"
      ],
      [
        "c",
        "t"
      ],
      [
        "ou",
        "s"
      ],
      [
        "Ġw",
        "hat"
      ],
      [
        "Ġs",
        "h"
      ],
      [
        "i",
        "ght"
      ],
      [
        "u",
        "l"
      ],
      [
        "E",
        "T"
      ],
      [
        "an",
        "t"
      ],
      [
        "Ġu",
        "p"
      ],
      [
        "Ġg",
        "ood"
      ],
      [
        "se",
        "l"
      ],
      [
        "q",
        "u"
      ],
      [
        "ĠB",
        "ut"
      ],
      [
        "ar",
        "t"
      ],
      [
        "r",
        "ow"
      ],
      [
        "in",
        "e"
      ],
      [
        "Ġc",
        "om"
      ],
      [
        "at",
        "h"
      ],
      [
        "Ġm",
        "u"
      ],
      [
        "Ġl",
        "ord"
      ],
      [
        "hi",
        "ch"
      ],
      [
        "n",
        "t"
      ],
      [
        "Ġp",
        "r"
      ],
      [
        "Ġm",
        "an"
      ],
      [
        "'",
        "ll"
      ],
      [
        "Ġa",
        "t"
      ],
      [
        "Ġ",
        "V"
      ],
      [
        "on",
        "e"
      ],
      [
        "Ġw",
        "he"
      ],
      [
        "Ġc",
        "on"
      ],
      [
        "ĠW",
        "hat"
      ],
      [
        "Ġa",
        "m"
      ],
      [
        "e",
        "nd"
      ],
      [
        "i",
        "c"
      ],
      [
        "E",
        "S"
      ],
      [
        "b",
        "le"
      ],
      [
        "r",
        "y"
      ],
      [
        "Ġf",
        "rom"
      ],
      [
        "on",
        "g"
      ],
      [
        "i",
        "e"
      ],
      [
        "Ġs",
        "he"
      ],
      [
        "Ġb",
        "l"
      ],
      [
        "i",
        "ve"
      ],
      [
        "v",
        "en"
      ],
      [
        "Ġg",
        "o"
      ],
      [
        "Ġm",
        "ore"
      ],
      [
        "ĠF",
        "or"
      ],
      [
        "Ġthe",
        "m"
      ],
      [
        "e",
        "m"
      ],
      [
        "Ġw",
        "as"
      ],
      [
        "I",
        "C"
      ],
      [
        "ou",
        "t"
      ],
      [
        "a",
        "u"
      ],
      [
        "Ġs",
        "ir"
      ],
      [
        "ot",
        "her"
      ],
      [
        "a",
        "re"
      ],
      [
        "ot",
        "h"
      ],
      [
        "o",
        "l"
      ],
      [
        "Ġ",
        "if"
      ],
      [
        "Ġn",
        "ow"
      ],
      [
        "ĠH",
        "e"
      ],
      [
        "Ġ",
        "hat"
      ],
      [
        "Ġthe",
        "re"
      ],
      [
        "Ġw",
        "ould"
      ],
      [
        "A",
        "N"
      ],
      [
        "o",
        "st"
      ],
      [
        "Ġkn",
        "ow"
      ],
      [
        "Ġc",
        "an"
      ],
      [
        "L",
        "O"
      ],
      [
        "in",
        "d"
      ],
      [
        "er",
        "s"
      ],
      [
        "I",
        "US"
      ],
      [
        "e",
        "p"
      ],
      [
        "sel",
        "f"
      ],
      [
        "Ġs",
        "ay"
      ],
      [
        "AR",
        "D"
      ],
      [
        "ĠK",
        "ING"
      ],
      [
        "at",
        "her"
      ],
      [
        "o",
        "nd"
      ],
      [
        "re",
        "s"
      ],
      [
        "at",
        "e"
      ],
      [
        "f",
        "e"
      ],
      [
        "Ġs",
        "w"
      ],
      [
        "Ġhe",
        "re"
      ],
      [
        "Ġlo",
        "ve"
      ],
      [
        "Ġthe",
        "ir"
      ],
      [
        "Ġ",
        "or"
      ],
      [
        "Ġt",
        "han"
      ],
      [
        "ĠM",
        "y"
      ],
      [
        "Ġb",
        "r"
      ],
      [
        "p",
        "p"
      ],
      [
        "-",
        "-"
      ],
      [
        "Ġthe",
        "y"
      ],
      [
        "Ġu",
        "s"
      ],
      [
        "Ġk",
        "ing"
      ],
      [
        "Ġthe",
        "n"
      ],
      [
        "a",
        "ll"
      ],
      [
        "Ġa",
        "r"
      ],
      [
        "o",
        "d"
      ],
      [
        "Ġl",
        "et"
      ],
      [
        "Ġu",
        "n"
      ],
      [
        "i",
        "g"
      ],
      [
        "Ġw",
        "or"
      ],
      [
        "u",
        "re"
      ],
      [
        "in",
        "k"
      ],
      [
        "Ġm",
        "ay"
      ],
      [
        "h",
        "y"
      ],
      [
        "Ġc",
        "ome"
      ],
      [
        "am",
        "e"
      ],
      [
        "f",
        "ore"
      ],
      [
        "or",
        "t"
      ],
      [
        "ĠA",
        "s"
      ],
      [
        "Ġ",
        "qu"
      ],
      [
        "oo",
        "k"
      ],
      [
        "Ġwe",
        "ll"
      ],
      [
        "e",
        "l"
      ],
      [
        "is",
        "h"
      ],
      [
        "L",
        "I"
      ],
      [
        "ĠW",
        "he"
      ],
      [
        "Ġ",
        "j"
      ],
      [
        "K",
        "E"
      ],
      [
        "v",
        "es"
      ],
      [
        "Ġon",
        "e"
      ],
      [
        "Ġhat",
        "h"
      ],
      [
        "ir",
        "st"
      ],
      [
        "Ġm",
        "ake"
      ],
      [
        "ĠY",
        "ou"
      ],
      [
        "Ġg",
        "ra"
      ],
      [
        "re",
        "at"
      ],
      [
        "a",
        "k"
      ],
      [
        "n",
        "g"
      ],
      [
        "Ġmu",
        "st"
      ],
      [
        "g",
        "ain"
      ],
      [
        "ou",
        "nd"
      ],
      [
        "Ġwe",
        "re"
      ],
      [
        "Ġh",
        "o"
      ],
      [
        "Ġse",
        "e"
      ],
      [
        "Ġsh",
        "ould"
      ],
      [
        "Ġli",
        "ke"
      ],
      [
        "c",
        "i"
      ],
      [
        "Ġp",
        "ro"
      ],
      [
        "u",
        "e"
      ],
      [
        "ea",
        "k"
      ],
      [
        "T",
        "IO"
      ],
      [
        "Ġs",
        "a"
      ],
      [
        "it",
        "y"
      ],
      [
        "Ġm",
        "ad"
      ],
      [
        "Ġp",
        "l"
      ],
      [
        "Ġf",
        "ather"
      ],
      [
        "Ġha",
        "d"
      ],
      [
        "u",
        "m"
      ],
      [
        "Ġd",
        "id"
      ],
      [
        "Ġup",
        "on"
      ],
      [
        "O",
        "M"
      ],
      [
        "im",
        "e"
      ],
      [
        "p",
        "e"
      ],
      [
        "Ġto",
        "o"
      ],
      [
        "i",
        "ce"
      ],
      [
        "O",
        "N"
      ],
      [
        "Ġ",
        "J"
      ],
      [
        "Ġd",
        "is"
      ],
      [
        "en",
        "ce"
      ],
      [
        "Ġde",
        "ath"
      ],
      [
        "w",
        "ard"
      ],
      [
        "Ġw",
        "hich"
      ],
      [
        "Ġ",
        "en"
      ],
      [
        "ĠI",
        "f"
      ],
      [
        "o",
        "se"
      ],
      [
        "ow",
        "n"
      ],
      [
        "Ġsp",
        "eak"
      ],
      [
        "Ġp",
        "o"
      ],
      [
        "Ġwhe",
        "n"
      ],
      [
        "f",
        "ul"
      ],
      [
        "Ġ",
        "out"
      ],
      [
        "Ġf",
        "ri"
      ],
      [
        "Ġh",
        "ow"
      ],
      [
        "ent",
        "le"
      ],
      [
        "i",
        "o"
      ],
      [
        "p",
        "t"
      ],
      [
        "u",
        "n"
      ],
      [
        "Ġa",
        "gain"
      ],
      [
        "IC",
        "H"
      ],
      [
        "ĠR",
        "ICH"
      ],
      [
        "Ġt",
        "ru"
      ],
      [
        "O",
        "L"
      ],
      [
        "U",
        "KE"
      ],
      [
        "d",
        "e"
      ],
      [
        "ĠD",
        "UKE"
      ],
      [
        "m",
        "an"
      ],
      [
        "Ġhe",
        "art"
      ],
      [
        "Ġy",
        "et"
      ],
      [
        "i",
        "ck"
      ],
      [
        "Ġha",
        "nd"
      ],
      [
        "ver",
        "y"
      ],
      [
        "ĠW",
        "ith"
      ],
      [
        "ĠRICH",
        "ARD"
      ],
      [
        "Ġw",
        "ho"
      ],
      [
        "EN",
        "TIO"
      ],
      [
        "ĠTh",
        "ou"
      ],
      [
        "Ġs",
        "ome"
      ],
      [
        "ĠW",
        "e"
      ],
      [
        "ig",
        "n"
      ],
      [
        "an",
        "ce"
      ],
      [
        "ĠW",
        "hich"
      ],
      [
        "Ġm",
        "ar"
      ],
      [
        "Ġh",
        "on"
      ],
      [
        "n",
        "ce"
      ],
      [
        "i",
        "es"
      ],
      [
        "Ġ",
        "r"
      ],
      [
        "Ġs",
        "on"
      ],
      [
        "ĠI",
        "n"
      ],
      [
        "i",
        "re"
      ],
      [
        "Ġm",
        "ine"
      ],
      [
        "Ġof",
        "f"
      ],
      [
        "is",
        "t"
      ],
      [
        "Ġa",
        "l"
      ],
      [
        "in",
        "ce"
      ],
      [
        "IN",
        "C"
      ],
      [
        "ha",
        "r"
      ],
      [
        "or",
        "n"
      ],
      [
        "a",
        "ck"
      ],
      [
        "ĠW",
        "hy"
      ],
      [
        "'",
        "t"
      ],
      [
        "w",
        "n"
      ],
      [
        "ĠO",
        "f"
      ],
      [
        "ĠG",
        "od"
      ],
      [
        "E",
        "L"
      ],
      [
        "Ġt",
        "ime"
      ],
      [
        "Ġhe",
        "a"
      ],
      [
        "Ġsu",
        "ch"
      ],
      [
        "o",
        "y"
      ],
      [
        "ĠF",
        "irst"
      ],
      [
        "Ġhe",
        "ar"
      ],
      [
        "ĠS",
        "o"
      ],
      [
        "n",
        "ess"
      ],
      [
        "Ġbr",
        "other"
      ],
      [
        "e",
        "c"
      ],
      [
        "Ġthe",
        "se"
      ],
      [
        "ĠC",
        "l"
      ],
      [
        "Ġbl",
        "ood"
      ],
      [
        "Ġa",
        "b"
      ],
      [
        "it",
        "her"
      ],
      [
        "Ġe",
        "x"
      ],
      [
        "Ġg",
        "ive"
      ],
      [
        "U",
        "E"
      ],
      [
        "Ġf",
        "o"
      ],
      [
        "ĠI",
        "s"
      ],
      [
        "Ġd",
        "ay"
      ],
      [
        "ĠN",
        "o"
      ],
      [
        "Ġe",
        "ar"
      ],
      [
        "Ġ",
        "ro"
      ],
      [
        "Ġl",
        "ook"
      ],
      [
        "Ġth",
        "ink"
      ],
      [
        "Ġt",
        "ell"
      ],
      [
        "ĠI",
        "I"
      ],
      [
        "ĠH",
        "ow"
      ],
      [
        "Ġli",
        "fe"
      ],
      [
        "T",
        "ER"
      ],
      [
        "is",
        "e"
      ],
      [
        "Ġe",
        "y"
      ],
      [
        "A",
        "B"
      ],
      [
        "e",
        "et"
      ],
      [
        "Ġwhe",
        "re"
      ],
      [
        "Ġt",
        "ake"
      ],
      [
        "Ġw",
        "ord"
      ],
      [
        "UC",
        "H"
      ],
      [
        "ou",
        "l"
      ],
      [
        "Ġfri",
        "end"
      ],
      [
        "t",
        "her"
      ],
      [
        "Ġ",
        "Q"
      ],
      [
        "ĠTh",
        "is"
      ],
      [
        "a",
        "g"
      ],
      [
        "a",
        "ge"
      ],
      [
        "Ġd",
        "es"
      ],
      [
        "ĠG",
        "LO"
      ],
      [
        "UC",
        "ES"
      ],
      [
        "ĠGLO",
        "UCES"
      ],
      [
        "ĠGLOUCES",
        "TER"
      ],
      [
        "e",
        "f"
      ],
      [
        "e",
        "en"
      ],
      [
        "er",
        "v"
      ],
      [
        "ĠC",
        "ome"
      ],
      [
        "u",
        "st"
      ],
      [
        "Ġg",
        "entle"
      ],
      [
        "ad",
        "y"
      ],
      [
        "row",
        "n"
      ],
      [
        "ing",
        "s"
      ],
      [
        "ĠL",
        "ord"
      ],
      [
        "Ġ",
        "U"
      ],
      [
        "Ġ",
        "ri"
      ],
      [
        "ur",
        "se"
      ],
      [
        "a",
        "ve"
      ],
      [
        "R",
        "Y"
      ],
      [
        "a",
        "se"
      ],
      [
        "ĠR",
        "ome"
      ],
      [
        "t",
        "is"
      ],
      [
        "Ġl",
        "ea"
      ],
      [
        "ĠV",
        "INC"
      ],
      [
        "Ġar",
        "t"
      ],
      [
        "UE",
        "EN"
      ],
      [
        "ĠQ",
        "UEEN"
      ],
      [
        "ĠVINC",
        "ENTIO"
      ],
      [
        "w",
        "ay"
      ],
      [
        "Ġw",
        "ar"
      ],
      [
        "ĠO",
        "F"
      ],
      [
        "Ġm",
        "ost"
      ],
      [
        "Ġhon",
        "our"
      ],
      [
        "Ġf",
        "l"
      ],
      [
        "ĠM",
        "ar"
      ],
      [
        "Ġmu",
        "ch"
      ],
      [
        "U",
        "M"
      ],
      [
        "L",
        "AN"
      ],
      [
        "Ġs",
        "l"
      ],
      [
        "ĠWhe",
        "re"
      ],
      [
        "A",
        "M"
      ],
      [
        "ur",
        "n"
      ],
      [
        "Ġmad",
        "e"
      ],
      [
        "Ġt",
        "w"
      ],
      [
        "m",
        "ent"
      ],
      [
        "Ġf",
        "ear"
      ],
      [
        "Ġha",
        "st"
      ],
      [
        "ĠN",
        "ow"
      ],
      [
        "ĠW",
        "ho"
      ],
      [
        "Ġbe",
        "t"
      ],
      [
        "ĠH",
        "EN"
      ],
      [
        "au",
        "ght"
      ],
      [
        "ĠHEN",
        "RY"
      ],
      [
        "Ġc",
        "ou"
      ],
      [
        "Ġg",
        "reat"
      ],
      [
        "ĠB",
        "e"
      ],
      [
        "b",
        "er"
      ],
      [
        "n",
        "ot"
      ],
      [
        "Ġb",
        "re"
      ],
      [
        "ve",
        "d"
      ],
      [
        "Ġne",
        "ver"
      ],
      [
        "Ġfa",
        "ir"
      ],
      [
        "Ġne",
        "w"
      ],
      [
        "c",
        "c"
      ],
      [
        "e",
        "e"
      ],
      [
        "s",
        "s"
      ],
      [
        "Ġa",
        "f"
      ],
      [
        "ow",
        "er"
      ],
      [
        "a",
        "p"
      ],
      [
        "i",
        "gh"
      ],
      [
        "Ġm",
        "en"
      ],
      [
        "ĠA",
        "N"
      ],
      [
        "t",
        "le"
      ],
      [
        "or",
        "row"
      ],
      [
        "ĠY",
        "our"
      ],
      [
        "ast",
        "er"
      ],
      [
        "u",
        "ke"
      ],
      [
        "ĠI",
        "t"
      ],
      [
        "i",
        "z"
      ],
      [
        "ou",
        "gh"
      ],
      [
        "ĠY",
        "OR"
      ],
      [
        "ĠYOR",
        "K"
      ],
      [
        "Ġc",
        "all"
      ],
      [
        "Ġp",
        "art"
      ],
      [
        "Ġan",
        "y"
      ],
      [
        "Ġ",
        "ra"
      ],
      [
        "at",
        "ion"
      ],
      [
        "ĠO",
        "r"
      ],
      [
        "IN",
        "IUS"
      ],
      [
        "S",
        "T"
      ],
      [
        "Ġa",
        "d"
      ],
      [
        "re",
        "e"
      ],
      [
        "id",
        "e"
      ],
      [
        "Ġcom",
        "m"
      ],
      [
        "Ġcan",
        "not"
      ],
      [
        "Ġp",
        "re"
      ],
      [
        "Ġst",
        "and"
      ],
      [
        "Ġtru",
        "e"
      ],
      [
        "Ġhea",
        "ven"
      ],
      [
        "Ġn",
        "ame"
      ],
      [
        "ĠP",
        "ET"
      ],
      [
        "A",
        "U"
      ],
      [
        "Ġbe",
        "en"
      ],
      [
        "Ġpr",
        "ay"
      ],
      [
        "h",
        "ing"
      ],
      [
        "o",
        "ld"
      ],
      [
        "Ġc",
        "l"
      ],
      [
        "Ġsw",
        "eet"
      ],
      [
        "D",
        "W"
      ],
      [
        "Ġp",
        "er"
      ],
      [
        "Ġp",
        "le"
      ],
      [
        "ĠE",
        "DW"
      ],
      [
        "ĠEDW",
        "ARD"
      ],
      [
        "p",
        "le"
      ],
      [
        "ĠG",
        "R"
      ],
      [
        ",",
        "--"
      ],
      [
        "Ġd",
        "oth"
      ],
      [
        "Ġno",
        "ble"
      ],
      [
        "Ġw",
        "r"
      ],
      [
        "Ġo",
        "wn"
      ],
      [
        "ear",
        "s"
      ],
      [
        "ĠL",
        "UC"
      ],
      [
        "ou",
        "se"
      ],
      [
        "Ġd",
        "one"
      ],
      [
        "ĠThe",
        "re"
      ],
      [
        "u",
        "ll"
      ],
      [
        "Ġt",
        "r"
      ],
      [
        "Ġw",
        "ay"
      ],
      [
        "Ġo",
        "ther"
      ],
      [
        "Ġhe",
        "ad"
      ],
      [
        "if",
        "e"
      ],
      [
        "R",
        "O"
      ],
      [
        "a",
        "w"
      ],
      [
        "Ġme",
        "an"
      ],
      [
        "Ġp",
        "res"
      ],
      [
        "U",
        "T"
      ],
      [
        "Ġbe",
        "ar"
      ],
      [
        "ĠE",
        "d"
      ],
      [
        "Ġs",
        "c"
      ],
      [
        "re",
        "d"
      ],
      [
        "Ġn",
        "or"
      ],
      [
        "A",
        "P"
      ],
      [
        "E",
        "O"
      ],
      [
        "Ġ",
        "very"
      ],
      [
        "Ġs",
        "oul"
      ],
      [
        "ĠA",
        "y"
      ],
      [
        "ĠR",
        "OM"
      ],
      [
        "ĠWhe",
        "n"
      ],
      [
        "ĠEd",
        "ward"
      ],
      [
        "ĠROM",
        "EO"
      ],
      [
        "v",
        "ing"
      ],
      [
        "Ġb",
        "oth"
      ],
      [
        "Ġn",
        "ight"
      ],
      [
        "ĠA",
        "n"
      ],
      [
        "Ġbe",
        "fore"
      ],
      [
        "ĠM",
        "EN"
      ],
      [
        "EN",
        "IUS"
      ],
      [
        "as",
        "s"
      ],
      [
        "ain",
        "t"
      ],
      [
        "Ġwor",
        "ld"
      ],
      [
        "ĠMEN",
        "ENIUS"
      ],
      [
        "a",
        "ce"
      ],
      [
        "g",
        "er"
      ],
      [
        "ĠB",
        "y"
      ],
      [
        "au",
        "se"
      ],
      [
        "Ġqu",
        "een"
      ],
      [
        "l",
        "i"
      ],
      [
        "ĠL",
        "et"
      ],
      [
        "T",
        "H"
      ],
      [
        "Ġm",
        "o"
      ],
      [
        "Ġc",
        "hi"
      ],
      [
        "aught",
        "er"
      ],
      [
        "R",
        "UCH"
      ],
      [
        "ĠThe",
        "n"
      ],
      [
        "ĠHe",
        "re"
      ],
      [
        "ĠPET",
        "RUCH"
      ],
      [
        "ĠPETRUCH",
        "IO"
      ],
      [
        "a",
        "ble"
      ],
      [
        "Ġd",
        "own"
      ],
      [
        "Ġde",
        "ad"
      ],
      [
        "Ġcon",
        "t"
      ],
      [
        "T",
        "ES"
      ],
      [
        "Ġa",
        "pp"
      ],
      [
        "Ġw",
        "h"
      ],
      [
        "it",
        "e"
      ],
      [
        "Ġ",
        "ke"
      ],
      [
        "Ġbe",
        "ing"
      ],
      [
        "Ġre",
        "m"
      ],
      [
        "p",
        "er"
      ],
      [
        "Ġmy",
        "self"
      ],
      [
        "a",
        "b"
      ],
      [
        "l",
        "es"
      ],
      [
        "ĠT",
        "han"
      ],
      [
        "ĠM",
        "AR"
      ],
      [
        "Ġbe",
        "g"
      ],
      [
        "Ġar",
        "m"
      ],
      [
        "Ġth",
        "us"
      ],
      [
        "ĠC",
        "OR"
      ],
      [
        "IO",
        "LAN"
      ],
      [
        "il",
        "t"
      ],
      [
        "Ġlea",
        "ve"
      ],
      [
        "ĠCOR",
        "IOLAN"
      ],
      [
        "ĠCORIOLAN",
        "US"
      ],
      [
        "ĠS",
        "ec"
      ],
      [
        "Ġgra",
        "ce"
      ],
      [
        "ĠSec",
        "ond"
      ],
      [
        "Ġu",
        "nt"
      ],
      [
        "ct",
        "ion"
      ],
      [
        "ĠN",
        "or"
      ],
      [
        "res",
        "s"
      ],
      [
        "Ġey",
        "es"
      ],
      [
        "Ġ",
        "im"
      ],
      [
        "Ġm",
        "other"
      ],
      [
        "ĠL",
        "E"
      ],
      [
        "l",
        "ess"
      ],
      [
        "Ġm",
        "a"
      ],
      [
        "Ġo",
        "ld"
      ],
      [
        "l",
        "and"
      ],
      [
        "r",
        "an"
      ],
      [
        "Ġre",
        "p"
      ],
      [
        "IN",
        "A"
      ],
      [
        "it",
        "iz"
      ],
      [
        "Ġe",
        "ver"
      ],
      [
        "itiz",
        "en"
      ],
      [
        "l",
        "o"
      ],
      [
        "p",
        "s"
      ],
      [
        "s",
        "w"
      ],
      [
        "Ġw",
        "ife"
      ],
      [
        "Ġl",
        "ong"
      ],
      [
        "Ġin",
        "t"
      ],
      [
        "ĠS",
        "he"
      ],
      [
        "Ġli",
        "ve"
      ],
      [
        "Ġchi",
        "ld"
      ],
      [
        "Ġw",
        "om"
      ],
      [
        "Ġpo",
        "or"
      ],
      [
        "Ġfriend",
        "s"
      ],
      [
        "Ġa",
        "way"
      ],
      [
        "Ġcon",
        "s"
      ],
      [
        "ĠII",
        "I"
      ],
      [
        "ĠG",
        "o"
      ],
      [
        "Ġm",
        "ight"
      ],
      [
        "f",
        "ord"
      ],
      [
        "nd",
        "er"
      ],
      [
        "Ġd",
        "ie"
      ],
      [
        "ĠS",
        "ir"
      ],
      [
        "Ġst",
        "ay"
      ],
      [
        "ea",
        "ce"
      ],
      [
        "Ġcom",
        "es"
      ],
      [
        "k",
        "s"
      ],
      [
        "w",
        "ick"
      ],
      [
        "ou",
        "d"
      ],
      [
        "at",
        "ch"
      ],
      [
        "ĠW",
        "ar"
      ],
      [
        "le",
        "d"
      ],
      [
        "Ġman",
        "y"
      ],
      [
        "Ġ",
        "ru"
      ],
      [
        "Ġh",
        "ouse"
      ],
      [
        "Ġre",
        "st"
      ],
      [
        "Ġc",
        "rown"
      ],
      [
        "Ġp",
        "e"
      ],
      [
        "ĠWar",
        "wick"
      ],
      [
        "f",
        "f"
      ],
      [
        "Ġc",
        "our"
      ],
      [
        "Ġl",
        "e"
      ],
      [
        "ow",
        "s"
      ],
      [
        "T",
        "is"
      ],
      [
        "c",
        "ome"
      ],
      [
        "Ġ",
        "ent"
      ],
      [
        "is",
        "on"
      ],
      [
        "Ġha",
        "r"
      ],
      [
        "ĠH",
        "is"
      ],
      [
        "Ġthou",
        "ght"
      ],
      [
        "L",
        "A"
      ],
      [
        "S",
        "AB"
      ],
      [
        "ĠI",
        "SAB"
      ],
      [
        "Ġli",
        "e"
      ],
      [
        "EL",
        "LA"
      ],
      [
        "ĠISAB",
        "ELLA"
      ],
      [
        "i",
        "an"
      ],
      [
        "u",
        "ck"
      ],
      [
        "is",
        "s"
      ],
      [
        "er",
        "c"
      ],
      [
        "R",
        "AN"
      ],
      [
        "Ġs",
        "et"
      ],
      [
        "Ġd",
        "aughter"
      ],
      [
        "c",
        "he"
      ],
      [
        "ĠW",
        "ell"
      ],
      [
        "Ġnot",
        "hing"
      ],
      [
        "ĠRome",
        "o"
      ],
      [
        "U",
        "LI"
      ],
      [
        "Ġt",
        "ong"
      ],
      [
        "or",
        "s"
      ],
      [
        "at",
        "ter"
      ],
      [
        "ON",
        "TES"
      ],
      [
        "ĠJ",
        "ULI"
      ],
      [
        "Ġbet",
        "ter"
      ],
      [
        "ĠLE",
        "ONTES"
      ],
      [
        "ĠJULI",
        "ET"
      ],
      [
        "it",
        "tle"
      ],
      [
        "Ġg",
        "one"
      ],
      [
        "ĠS",
        "t"
      ],
      [
        "ĠN",
        "ay"
      ],
      [
        "Ġpr",
        "ince"
      ],
      [
        "ĠV",
        "I"
      ],
      [
        "r",
        "ant"
      ],
      [
        "A",
        "D"
      ],
      [
        "ou",
        "ght"
      ],
      [
        "Ġw",
        "it"
      ],
      [
        "in",
        "t"
      ],
      [
        "ĠL",
        "AD"
      ],
      [
        "ĠLAD",
        "Y"
      ],
      [
        "A",
        "L"
      ],
      [
        "C",
        "E"
      ],
      [
        "w",
        "ell"
      ],
      [
        "Ġt",
        "ri"
      ],
      [
        "EN",
        "CE"
      ],
      [
        "i",
        "ed"
      ],
      [
        "m",
        "e"
      ],
      [
        "ĠP",
        "ro"
      ],
      [
        "Ġnew",
        "s"
      ],
      [
        "Ġke",
        "ep"
      ],
      [
        "o",
        "s"
      ],
      [
        "Ġs",
        "le"
      ],
      [
        "Ġb",
        "est"
      ],
      [
        "Ġre",
        "s"
      ],
      [
        "Ġagain",
        "st"
      ],
      [
        "c",
        "es"
      ],
      [
        "f",
        "or"
      ],
      [
        "i",
        "ous"
      ],
      [
        "ha",
        "ll"
      ],
      [
        "Ġth",
        "ose"
      ],
      [
        "ĠS",
        "erv"
      ],
      [
        "i",
        "er"
      ],
      [
        "Ġa",
        "cc"
      ],
      [
        "Ġl",
        "ittle"
      ],
      [
        "Ġhe",
        "nce"
      ],
      [
        "Ġg",
        "ri"
      ],
      [
        "ĠS",
        "IC"
      ],
      [
        "ĠC",
        "itizen"
      ],
      [
        "oo",
        "l"
      ],
      [
        "Ġcom",
        "p"
      ],
      [
        "har",
        "d"
      ],
      [
        "ĠSIC",
        "INIUS"
      ],
      [
        "Ġth",
        "ing"
      ],
      [
        "Ġh",
        "our"
      ],
      [
        "ĠN",
        "ot"
      ],
      [
        "Ġlord",
        "s"
      ],
      [
        "t",
        "y"
      ],
      [
        "Ġp",
        "ut"
      ],
      [
        "ard",
        "on"
      ],
      [
        "Ġfa",
        "ce"
      ],
      [
        "ak",
        "es"
      ],
      [
        "un",
        "e"
      ],
      [
        "l",
        "se"
      ],
      [
        "ll",
        "ow"
      ],
      [
        "se",
        "d"
      ],
      [
        "Ġe",
        "nd"
      ],
      [
        "ĠO",
        "n"
      ],
      [
        "Ġk",
        "ind"
      ],
      [
        "E",
        "Y"
      ],
      [
        "Ġyou",
        "ng"
      ],
      [
        "Ġst",
        "ill"
      ],
      [
        "ul",
        "t"
      ],
      [
        "Ġtw",
        "o"
      ],
      [
        "re",
        "t"
      ],
      [
        "or",
        "k"
      ],
      [
        "on",
        "t"
      ],
      [
        "Ġp",
        "ri"
      ],
      [
        "Ġhim",
        "self"
      ],
      [
        "ie",
        "ld"
      ],
      [
        "u",
        "d"
      ],
      [
        "Ġp",
        "ur"
      ],
      [
        "Ġp",
        "ower"
      ],
      [
        "al",
        "k"
      ],
      [
        "ĠTh",
        "y"
      ],
      [
        "ĠLUC",
        "IO"
      ],
      [
        "a",
        "le"
      ],
      [
        "in",
        "s"
      ],
      [
        "ĠI",
        "V"
      ],
      [
        "er",
        "t"
      ],
      [
        "Ġc",
        "ha"
      ],
      [
        "ĠR",
        "ic"
      ],
      [
        "ĠRic",
        "hard"
      ],
      [
        "e",
        "w"
      ],
      [
        "ĠC",
        "L"
      ],
      [
        "Ġsu",
        "b"
      ],
      [
        "Ġthere",
        "fore"
      ],
      [
        "Ġcou",
        "nt"
      ],
      [
        "T",
        "I"
      ],
      [
        "c",
        "l"
      ],
      [
        "f",
        "t"
      ],
      [
        "in",
        "ess"
      ],
      [
        "Ġf",
        "irst"
      ],
      [
        "Ġp",
        "eace"
      ],
      [
        "Ġg",
        "u"
      ],
      [
        "Ġe",
        "lse"
      ],
      [
        "ri",
        "ed"
      ],
      [
        "Ġde",
        "ar"
      ],
      [
        "ci",
        "ous"
      ],
      [
        "Ġunt",
        "o"
      ],
      [
        "Ġt",
        "ill"
      ],
      [
        "Ġs",
        "m"
      ],
      [
        "Ġd",
        "uke"
      ],
      [
        "Ġc",
        "ould"
      ],
      [
        "ĠW",
        "ill"
      ],
      [
        "ĠB",
        "R"
      ],
      [
        "ĠH",
        "ave"
      ],
      [
        "as",
        "on"
      ],
      [
        "hi",
        "le"
      ],
      [
        "a",
        "il"
      ],
      [
        "e",
        "ct"
      ],
      [
        "i",
        "le"
      ],
      [
        "Ġt",
        "ra"
      ],
      [
        "Ġb",
        "ack"
      ],
      [
        "Ġc",
        "o"
      ],
      [
        "Ġh",
        "us"
      ],
      [
        "ut",
        "y"
      ],
      [
        "Ġthou",
        "gh"
      ],
      [
        "Ġword",
        "s"
      ],
      [
        "Z",
        "AB"
      ],
      [
        "Ġt",
        "re"
      ],
      [
        "Ġb",
        "id"
      ],
      [
        "Ġf",
        "ell"
      ],
      [
        "Ġf",
        "ind"
      ],
      [
        "Ġd",
        "re"
      ],
      [
        "ĠY",
        "ork"
      ],
      [
        "ĠE",
        "LI"
      ],
      [
        "Ġne",
        "ed"
      ],
      [
        "ET",
        "H"
      ],
      [
        "Ġear",
        "th"
      ],
      [
        "Ġtong",
        "ue"
      ],
      [
        "ZAB",
        "ETH"
      ],
      [
        "ĠELI",
        "ZABETH"
      ],
      [
        "b",
        "and"
      ],
      [
        "i",
        "us"
      ],
      [
        "o",
        "ple"
      ],
      [
        "y",
        "al"
      ],
      [
        "Ġl",
        "ady"
      ],
      [
        "Ġth",
        "ine"
      ],
      [
        "I",
        "AN"
      ],
      [
        "m",
        "en"
      ],
      [
        "Ġb",
        "ra"
      ],
      [
        "or",
        "se"
      ],
      [
        "Ġh",
        "ome"
      ],
      [
        "Ġhe",
        "l"
      ],
      [
        "Ġfor",
        "th"
      ],
      [
        "Ġse",
        "em"
      ],
      [
        "Ġho",
        "pe"
      ],
      [
        "ee",
        "ch"
      ],
      [
        "r",
        "ay"
      ],
      [
        "en",
        "ry"
      ],
      [
        "ar",
        "k"
      ],
      [
        "Ġh",
        "igh"
      ],
      [
        "et",
        "h"
      ],
      [
        "ĠH",
        "enry"
      ],
      [
        "ĠY",
        "et"
      ],
      [
        "Ġhus",
        "band"
      ],
      [
        "ve",
        "re"
      ],
      [
        "ĠG",
        "ood"
      ],
      [
        "Ġri",
        "ght"
      ],
      [
        "g",
        "et"
      ],
      [
        "Ġc",
        "han"
      ],
      [
        "W",
        "IC"
      ],
      [
        "t",
        "w"
      ],
      [
        "Ġm",
        "ind"
      ],
      [
        "Ġb",
        "an"
      ],
      [
        "ĠW",
        "AR"
      ],
      [
        "ut",
        "h"
      ],
      [
        "Ġpe",
        "ople"
      ],
      [
        "WIC",
        "K"
      ],
      [
        "ĠWAR",
        "WICK"
      ],
      [
        "A",
        "ST"
      ],
      [
        "a",
        "ch"
      ],
      [
        "d",
        "s"
      ],
      [
        "i",
        "x"
      ],
      [
        "re",
        "r"
      ],
      [
        "is",
        "ter"
      ],
      [
        "Ġc",
        "he"
      ],
      [
        "Ġc",
        "har"
      ],
      [
        "ĠA",
        "ll"
      ],
      [
        "ĠS",
        "hall"
      ],
      [
        "hi",
        "p"
      ],
      [
        "ĠD",
        "o"
      ],
      [
        "Ġsh",
        "ow"
      ],
      [
        "Ġcon",
        "f"
      ],
      [
        "g",
        "ed"
      ],
      [
        "Ġb",
        "ri"
      ],
      [
        "Ġhand",
        "s"
      ],
      [
        "H",
        "AM"
      ],
      [
        "f",
        "ort"
      ],
      [
        "Ġm",
        "aster"
      ],
      [
        "Ġw",
        "hy"
      ],
      [
        "Ġc",
        "ause"
      ],
      [
        "ĠN",
        "urse"
      ],
      [
        "Ġj",
        "oy"
      ],
      [
        "Ġim",
        "p"
      ],
      [
        "L",
        "ET"
      ],
      [
        "U",
        "LET"
      ],
      [
        "Ġs",
        "erv"
      ],
      [
        "Ġm",
        "ist"
      ],
      [
        "Ġn",
        "one"
      ],
      [
        "Ġl",
        "aw"
      ],
      [
        "Ġg",
        "l"
      ],
      [
        "ĠC",
        "AP"
      ],
      [
        "ĠThe",
        "y"
      ],
      [
        "Ġon",
        "ce"
      ],
      [
        "Ġsa",
        "id"
      ],
      [
        "ĠCAP",
        "ULET"
      ],
      [
        "Ġfor",
        "t"
      ],
      [
        "Ġe",
        "very"
      ],
      [
        "G",
        "E"
      ],
      [
        "I",
        "L"
      ],
      [
        "M",
        "IO"
      ],
      [
        "re",
        "n"
      ],
      [
        "Ġb",
        "od"
      ],
      [
        "ous",
        "in"
      ],
      [
        "Ġbr",
        "ing"
      ],
      [
        "R",
        "I"
      ],
      [
        "b",
        "t"
      ],
      [
        "Ġd",
        "ou"
      ],
      [
        "K",
        "ING"
      ],
      [
        "e",
        "ed"
      ],
      [
        "Ġp",
        "ass"
      ],
      [
        "at",
        "es"
      ],
      [
        "ĠB",
        "UC"
      ],
      [
        "Ġple",
        "ase"
      ],
      [
        "UT",
        "US"
      ],
      [
        "ĠBR",
        "UTUS"
      ],
      [
        "KING",
        "HAM"
      ],
      [
        "ĠBUC",
        "KINGHAM"
      ],
      [
        "B",
        "RO"
      ],
      [
        "i",
        "et"
      ],
      [
        "l",
        "t"
      ],
      [
        "ĠT",
        "RAN"
      ],
      [
        "ir",
        "d"
      ],
      [
        "ĠB",
        "OL"
      ],
      [
        "ĠF",
        "rom"
      ],
      [
        "Ġli",
        "ght"
      ],
      [
        "ING",
        "BRO"
      ],
      [
        "ES",
        "S"
      ],
      [
        "ĠTRAN",
        "IO"
      ],
      [
        "ĠBOL",
        "INGBRO"
      ],
      [
        "ĠBOLINGBRO",
        "KE"
      ],
      [
        "e",
        "el"
      ],
      [
        "v",
        "ost"
      ],
      [
        "Ġt",
        "ears"
      ],
      [
        "Ġw",
        "o"
      ],
      [
        "Ġb",
        "es"
      ],
      [
        "Ġn",
        "at"
      ],
      [
        "Ġth",
        "r"
      ],
      [
        "Ġwho",
        "se"
      ],
      [
        "Ġro",
        "yal"
      ],
      [
        "Ġpres",
        "ent"
      ],
      [
        "sw",
        "er"
      ],
      [
        "c",
        "le"
      ],
      [
        "m",
        "b"
      ],
      [
        "Ġs",
        "ince"
      ],
      [
        "Ġb",
        "oy"
      ],
      [
        "it",
        "s"
      ],
      [
        "Ġc",
        "ame"
      ],
      [
        "ar",
        "y"
      ],
      [
        "ĠO",
        "ur"
      ],
      [
        "Ġj",
        "ust"
      ],
      [
        "l",
        "f"
      ],
      [
        "o",
        "ck"
      ],
      [
        "v",
        "y"
      ],
      [
        "or",
        "y"
      ],
      [
        "Ġf",
        "ull"
      ],
      [
        "Ġp",
        "ardon"
      ],
      [
        "Ġhe",
        "ard"
      ],
      [
        "Ġu",
        "nder"
      ],
      [
        "Ġde",
        "v"
      ],
      [
        "ro",
        "ke"
      ],
      [
        "Ġaf",
        "ter"
      ],
      [
        "Ġwr",
        "ong"
      ],
      [
        "G",
        "AR"
      ],
      [
        "N",
        "E"
      ],
      [
        "p",
        "ose"
      ],
      [
        "Ġl",
        "and"
      ],
      [
        "Ġha",
        "pp"
      ],
      [
        "Ġpl",
        "ace"
      ],
      [
        "ĠMAR",
        "GAR"
      ],
      [
        "ĠMARGAR",
        "ET"
      ],
      [
        "A",
        "TH"
      ],
      [
        "Ġm",
        "is"
      ],
      [
        "Ġl",
        "ast"
      ],
      [
        "en",
        "s"
      ],
      [
        "Ġe",
        "re"
      ],
      [
        "Ġst",
        "ate"
      ],
      [
        "ĠK",
        "ing"
      ],
      [
        "AM",
        "IL"
      ],
      [
        "s",
        "and"
      ],
      [
        "Ġs",
        "orrow"
      ],
      [
        "Ġc",
        "are"
      ],
      [
        "Ġme",
        "et"
      ],
      [
        "Ġk",
        "ill"
      ],
      [
        "Ġho",
        "ld"
      ],
      [
        "c",
        "ent"
      ],
      [
        "it",
        "ion"
      ],
      [
        "Ġthou",
        "sand"
      ],
      [
        "est",
        "y"
      ],
      [
        "OR",
        "D"
      ],
      [
        "Ġey",
        "e"
      ],
      [
        "ĠAN",
        "GE"
      ],
      [
        "ĠGR",
        "E"
      ],
      [
        "Ġwh",
        "om"
      ],
      [
        "Ġhel",
        "p"
      ],
      [
        "ĠANGE",
        "LO"
      ],
      [
        "Ġf",
        "al"
      ],
      [
        "Ġl",
        "ess"
      ],
      [
        "AR",
        "INA"
      ],
      [
        "ĠE",
        "ng"
      ],
      [
        "Ġan",
        "swer"
      ],
      [
        "are",
        "nce"
      ],
      [
        "Ġfo",
        "llow"
      ],
      [
        "S",
        "C"
      ],
      [
        "Ġb",
        "us"
      ],
      [
        "Ġf",
        "ar"
      ],
      [
        "Ġf",
        "ool"
      ],
      [
        "Ġc",
        "h"
      ],
      [
        "Ġh",
        "ither"
      ],
      [
        "Ġp",
        "at"
      ],
      [
        "ce",
        "ive"
      ],
      [
        "ir",
        "t"
      ],
      [
        "ĠS",
        "h"
      ],
      [
        "Ġwe",
        "ep"
      ],
      [
        "Ġsha",
        "me"
      ],
      [
        "Ġsu",
        "n"
      ],
      [
        "ĠK",
        "ATH"
      ],
      [
        "sel",
        "ves"
      ],
      [
        "ci",
        "us"
      ],
      [
        "Ġen",
        "em"
      ],
      [
        "ĠCl",
        "arence"
      ],
      [
        "Ġab",
        "out"
      ],
      [
        "ĠKATH",
        "ARINA"
      ],
      [
        "i",
        "ol"
      ],
      [
        "ur",
        "de"
      ],
      [
        "Ġfa",
        "ll"
      ],
      [
        "Ġgentle",
        "man"
      ],
      [
        "ĠMar",
        "cius"
      ],
      [
        "Ġma",
        "id"
      ],
      [
        "d",
        "ay"
      ],
      [
        "Ġo",
        "b"
      ],
      [
        "as",
        "ure"
      ],
      [
        "Ġint",
        "o"
      ],
      [
        "Ġm",
        "akes"
      ],
      [
        "Ġc",
        "ousin"
      ],
      [
        "ĠE",
        "SC"
      ],
      [
        "Ġhat",
        "e"
      ],
      [
        "Ġgra",
        "cious"
      ],
      [
        "ĠU",
        "n"
      ],
      [
        "ĠU",
        "p"
      ],
      [
        "Ġcou",
        "n"
      ],
      [
        "Ġcour",
        "t"
      ],
      [
        "AL",
        "US"
      ],
      [
        "Ġgri",
        "ef"
      ],
      [
        "ĠESC",
        "ALUS"
      ],
      [
        "a",
        "ir"
      ],
      [
        "j",
        "ect"
      ],
      [
        "ĠA",
        "l"
      ],
      [
        "im",
        "es"
      ],
      [
        "Ġst",
        "ri"
      ],
      [
        "Ġwom",
        "an"
      ],
      [
        "i",
        "v"
      ],
      [
        "o",
        "ve"
      ],
      [
        "Ġt",
        "urn"
      ],
      [
        "ĠH",
        "ath"
      ],
      [
        "Ġst",
        "re"
      ],
      [
        "Ġcom",
        "fort"
      ],
      [
        "Ġwor",
        "th"
      ],
      [
        "i",
        "ld"
      ],
      [
        "l",
        "ing"
      ],
      [
        "Ġt",
        "alk"
      ],
      [
        "Ġw",
        "ilt"
      ],
      [
        "on",
        "s"
      ],
      [
        "Ġh",
        "um"
      ],
      [
        "Ġbe",
        "d"
      ],
      [
        "al",
        "t"
      ],
      [
        "Ġdo",
        "st"
      ],
      [
        "ĠD",
        "UCH"
      ],
      [
        "ĠD",
        "uke"
      ],
      [
        "ic",
        "es"
      ],
      [
        "de",
        "ed"
      ],
      [
        "Ġsle",
        "ep"
      ],
      [
        "urde",
        "rer"
      ],
      [
        "ĠDUCH",
        "ESS"
      ],
      [
        "p",
        "her"
      ],
      [
        "ou",
        "nt"
      ],
      [
        "it",
        "or"
      ],
      [
        "Ġo",
        "ver"
      ],
      [
        "Ġbe",
        "l"
      ],
      [
        "ER",
        "C"
      ],
      [
        "ĠAn",
        "ge"
      ],
      [
        "Ġbod",
        "y"
      ],
      [
        "m",
        "orrow"
      ],
      [
        "Ġ",
        "i"
      ],
      [
        "Ġs",
        "ound"
      ],
      [
        "Ġb",
        "u"
      ],
      [
        "Ġd",
        "ra"
      ],
      [
        "Ġin",
        "st"
      ],
      [
        "ut",
        "e"
      ],
      [
        "ĠH",
        "er"
      ],
      [
        "Ġfa",
        "ult"
      ],
      [
        "Ġat",
        "t"
      ],
      [
        "Ġthan",
        "k"
      ],
      [
        "ĠAnge",
        "lo"
      ],
      [
        "I",
        "A"
      ],
      [
        "i",
        "ence"
      ],
      [
        "is",
        "ed"
      ],
      [
        "Ġin",
        "deed"
      ],
      [
        "ĠC",
        "AMIL"
      ],
      [
        "Ġan",
        "other"
      ],
      [
        "Ġpro",
        "ve"
      ],
      [
        "Ġpl",
        "ay"
      ],
      [
        "Ġad",
        "v"
      ],
      [
        "Ġfal",
        "se"
      ],
      [
        "ĠCAMIL",
        "LO"
      ],
      [
        "i",
        "ly"
      ],
      [
        "Ġs",
        "er"
      ],
      [
        "om",
        "et"
      ],
      [
        "ĠW",
        "ould"
      ],
      [
        "Ġha",
        "s"
      ],
      [
        "Ġu",
        "se"
      ],
      [
        "Ġwe",
        "l"
      ],
      [
        "Ġre",
        "t"
      ],
      [
        "Ġde",
        "ed"
      ],
      [
        "ĠE",
        "ven"
      ],
      [
        "Ġv",
        "o"
      ],
      [
        "ie",
        "ve"
      ],
      [
        "Ġsw",
        "ord"
      ],
      [
        "ĠPro",
        "vost"
      ],
      [
        "Ġfell",
        "ow"
      ],
      [
        "T",
        "EN"
      ],
      [
        "Ġm",
        "atter"
      ],
      [
        "Ġb",
        "o"
      ],
      [
        "Ġf",
        "ight"
      ],
      [
        "Ġp",
        "ers"
      ],
      [
        "an",
        "s"
      ],
      [
        "ĠH",
        "OR"
      ],
      [
        "ill",
        "ain"
      ],
      [
        "Ġe",
        "ven"
      ],
      [
        "ad",
        "e"
      ],
      [
        "Ġfort",
        "une"
      ],
      [
        "TEN",
        "S"
      ],
      [
        "ĠHOR",
        "TENS"
      ],
      [
        "Ġs",
        "ent"
      ],
      [
        "ĠF",
        "RI"
      ],
      [
        "Ġso",
        "vere"
      ],
      [
        "ho",
        "ld"
      ],
      [
        "Ġpr",
        "ison"
      ],
      [
        "Ġgra",
        "ve"
      ],
      [
        "Ġcount",
        "ry"
      ],
      [
        "ĠUp",
        "on"
      ],
      [
        "ĠHORTENS",
        "IO"
      ],
      [
        "ĠFRI",
        "AR"
      ],
      [
        ",",
        "'"
      ],
      [
        "e",
        "al"
      ],
      [
        "Ġm",
        "erc"
      ],
      [
        "Ġd",
        "an"
      ],
      [
        "Ġc",
        "ur"
      ],
      [
        "Ġy",
        "ears"
      ],
      [
        "ĠA",
        "re"
      ],
      [
        "ĠB",
        "AP"
      ],
      [
        "ur",
        "y"
      ],
      [
        "Ġse",
        "nd"
      ],
      [
        "Ġv",
        "irt"
      ],
      [
        "Ġr",
        "ather"
      ],
      [
        "ST",
        "A"
      ],
      [
        "TI",
        "STA"
      ],
      [
        "Ġban",
        "ish"
      ],
      [
        "Ġdou",
        "bt"
      ],
      [
        "ĠBAP",
        "TISTA"
      ],
      [
        "C",
        "US"
      ],
      [
        "Y",
        "CUS"
      ],
      [
        "m",
        "p"
      ],
      [
        "ou",
        "ch"
      ],
      [
        "Ġw",
        "ant"
      ],
      [
        "Ġw",
        "ish"
      ],
      [
        "ĠT",
        "y"
      ],
      [
        "ĠA",
        "UT"
      ],
      [
        "Ġg",
        "r"
      ],
      [
        "Ġha",
        "ng"
      ],
      [
        "ĠC",
        "OM"
      ],
      [
        "Ġre",
        "ven"
      ],
      [
        "Ġas",
        "s"
      ],
      [
        "fe",
        "ct"
      ],
      [
        "pe",
        "ct"
      ],
      [
        "OL",
        "YCUS"
      ],
      [
        "Ġtr",
        "uth"
      ],
      [
        "Ġbus",
        "iness"
      ],
      [
        "ĠAUT",
        "OLYCUS"
      ],
      [
        "ĠCOM",
        "INIUS"
      ],
      [
        ".",
        "'"
      ],
      [
        "d",
        "d"
      ],
      [
        "ĠA",
        "t"
      ],
      [
        "ĠM",
        "ore"
      ],
      [
        "Ġre",
        "ason"
      ],
      [
        "Ġli",
        "es"
      ],
      [
        "Ġon",
        "ly"
      ],
      [
        "AR",
        "ENCE"
      ],
      [
        "Ġsha",
        "lt"
      ],
      [
        "ĠTh",
        "ird"
      ],
      [
        "Ġdis",
        "c"
      ],
      [
        "ĠCL",
        "ARENCE"
      ],
      [
        "e",
        "re"
      ],
      [
        "i",
        "or"
      ],
      [
        "m",
        "s"
      ],
      [
        "p",
        "en"
      ],
      [
        "r",
        "ance"
      ],
      [
        "Ġs",
        "ea"
      ],
      [
        "Ġc",
        "ra"
      ],
      [
        "Ġst",
        "ra"
      ],
      [
        "EN",
        "ES"
      ],
      [
        "Ġbre",
        "ath"
      ],
      [
        "Ġcomm",
        "and"
      ],
      [
        "Ġarm",
        "s"
      ],
      [
        "Ġdre",
        "am"
      ],
      [
        "pher",
        "d"
      ],
      [
        "V",
        "OL"
      ],
      [
        "d",
        "er"
      ],
      [
        "Ġl",
        "ay"
      ],
      [
        "en",
        "er"
      ],
      [
        "Ġp",
        "rom"
      ],
      [
        "Ġg",
        "i"
      ],
      [
        "ĠB",
        "EN"
      ],
      [
        "Ġst",
        "ran"
      ],
      [
        "ĠG",
        "entle"
      ],
      [
        "ĠN",
        "OR"
      ],
      [
        "Ġse",
        "c"
      ],
      [
        "ĠCl",
        "own"
      ],
      [
        "VOL",
        "IO"
      ],
      [
        "ĠBEN",
        "VOLIO"
      ],
      [
        "P",
        "ER"
      ],
      [
        "S",
        "PER"
      ],
      [
        "Ġs",
        "en"
      ],
      [
        "Ġs",
        "omet"
      ],
      [
        "Ġw",
        "ind"
      ],
      [
        "Ġp",
        "ity"
      ],
      [
        "ĠT",
        "ake"
      ],
      [
        "ĠP",
        "RO"
      ],
      [
        "Ġpr",
        "oud"
      ],
      [
        "Ġho",
        "ly"
      ],
      [
        "Ġen",
        "ough"
      ],
      [
        "UM",
        "IO"
      ],
      [
        "ĠGR",
        "UMIO"
      ],
      [
        "Ġcont",
        "ent"
      ],
      [
        "Ġrem",
        "em"
      ],
      [
        "SPER",
        "O"
      ],
      [
        "ĠPRO",
        "SPERO"
      ],
      [
        "U",
        "TIO"
      ],
      [
        "i",
        "a"
      ],
      [
        "k",
        "en"
      ],
      [
        "t",
        "en"
      ],
      [
        "he",
        "d"
      ],
      [
        "Ġd",
        "are"
      ],
      [
        "Ġth",
        "ree"
      ],
      [
        "at",
        "or"
      ],
      [
        "Ġbe",
        "a"
      ],
      [
        "ĠS",
        "u"
      ],
      [
        "ĠM",
        "urderer"
      ],
      [
        "ĠM",
        "ERC"
      ],
      [
        "Ġli",
        "ves"
      ],
      [
        "Ġso",
        "ld"
      ],
      [
        "ĠD",
        "id"
      ],
      [
        "ĠK",
        "ate"
      ],
      [
        "Ġsp",
        "ir"
      ],
      [
        "Ġfa",
        "re"
      ],
      [
        "Ġsw",
        "ear"
      ],
      [
        "ĠMERC",
        "UTIO"
      ],
      [
        "I",
        "S"
      ],
      [
        "i",
        "ke"
      ],
      [
        "Ġt",
        "end"
      ],
      [
        "Ġg",
        "et"
      ],
      [
        "et",
        "er"
      ],
      [
        "Ġwith",
        "in"
      ],
      [
        "Ġde",
        "p"
      ],
      [
        "Ġv",
        "illain"
      ],
      [
        "Ġgo",
        "ds"
      ],
      [
        "ĠWe",
        "re"
      ],
      [
        "ĠLUC",
        "ENTIO"
      ],
      [
        "ĠServ",
        "ant"
      ],
      [
        "Ġnat",
        "ure"
      ],
      [
        "Ġwel",
        "come"
      ],
      [
        "Ġs",
        "ister"
      ],
      [
        "ha",
        "m"
      ],
      [
        "Ġf",
        "oul"
      ],
      [
        "Ġf",
        "ree"
      ],
      [
        "Ġth",
        "ings"
      ],
      [
        "ar",
        "s"
      ],
      [
        "Ġg",
        "re"
      ],
      [
        "Ġk",
        "iss"
      ],
      [
        "ĠP",
        "OM"
      ],
      [
        "est",
        "er"
      ],
      [
        "Ġsa",
        "w"
      ],
      [
        "Ġmad",
        "am"
      ],
      [
        "LAN",
        "D"
      ],
      [
        "Ġmist",
        "ress"
      ],
      [
        "Ġhapp",
        "y"
      ],
      [
        "Ġsovere",
        "ign"
      ],
      [
        "ĠPOM",
        "P"
      ],
      [
        "L",
        "INA"
      ],
      [
        "a",
        "pt"
      ],
      [
        "i",
        "ent"
      ],
      [
        "u",
        "nt"
      ],
      [
        "ha",
        "l"
      ],
      [
        "Ġc",
        "ity"
      ],
      [
        "Ġy",
        "ield"
      ],
      [
        "an",
        "y"
      ],
      [
        "ĠW",
        "as"
      ],
      [
        "ĠG",
        "ive"
      ],
      [
        "ĠP",
        "AU"
      ],
      [
        "ver",
        "s"
      ],
      [
        "Ġbre",
        "ak"
      ],
      [
        "Ġmean",
        "s"
      ],
      [
        "Ġsub",
        "ject"
      ],
      [
        "Ġbes",
        "eech"
      ],
      [
        "ĠPAU",
        "LINA"
      ],
      [
        "Ġa",
        "w"
      ],
      [
        "Ġm",
        "er"
      ],
      [
        "Ġb",
        "orn"
      ],
      [
        "er",
        "y"
      ],
      [
        "Ġd",
        "en"
      ],
      [
        "Ġh",
        "orse"
      ],
      [
        "Ġo",
        "ath"
      ],
      [
        "ĠS",
        "ay"
      ],
      [
        "Ġyour",
        "s"
      ],
      [
        "ĠL",
        "ook"
      ],
      [
        "ond",
        "er"
      ],
      [
        "gain",
        "st"
      ],
      [
        "ag",
        "ue"
      ],
      [
        "ef",
        "t"
      ],
      [
        "get",
        "her"
      ],
      [
        "ĠGRE",
        "MIO"
      ],
      [
        "ĠPOMP",
        "EY"
      ],
      [
        "N",
        "IA"
      ],
      [
        "O",
        "LI"
      ],
      [
        "X",
        "ENES"
      ],
      [
        "b",
        "alt"
      ],
      [
        "Ġt",
        "em"
      ],
      [
        "Ġw",
        "ound"
      ],
      [
        "Ġw",
        "hile"
      ],
      [
        "Ġf",
        "ire"
      ],
      [
        "Ġd",
        "ru"
      ],
      [
        "an",
        "c"
      ],
      [
        "ĠC",
        "om"
      ],
      [
        "Ġyour",
        "self"
      ],
      [
        "ĠP",
        "OLI"
      ],
      [
        "us",
        "ic"
      ],
      [
        "Ġsu",
        "pp"
      ],
      [
        "Ġfa",
        "ith"
      ],
      [
        "ĠV",
        "OL"
      ],
      [
        "Ġblood",
        "y"
      ],
      [
        "Ġlook",
        "s"
      ],
      [
        "UM",
        "NIA"
      ],
      [
        "che",
        "s"
      ],
      [
        "ĠEng",
        "land"
      ],
      [
        "ĠPOLI",
        "XENES"
      ],
      [
        "ĠVOL",
        "UMNIA"
      ],
      [
        "e",
        "y"
      ],
      [
        "u",
        "es"
      ],
      [
        "Ġs",
        "it"
      ],
      [
        "Ġw",
        "in"
      ],
      [
        "Ġc",
        "ar"
      ],
      [
        "Ġc",
        "ond"
      ],
      [
        "en",
        "ger"
      ],
      [
        "ing",
        "man"
      ],
      [
        "ĠH",
        "AST"
      ],
      [
        "ĠF",
        "are"
      ],
      [
        "Ġre",
        "qu"
      ],
      [
        "Ġsp",
        "o"
      ],
      [
        "ING",
        "S"
      ],
      [
        "Ġcomm",
        "on"
      ],
      [
        "Ġma",
        "j"
      ],
      [
        "ĠServ",
        "ingman"
      ],
      [
        "Ġtra",
        "itor"
      ],
      [
        "cent",
        "io"
      ],
      [
        "ĠHAST",
        "INGS"
      ],
      [
        "R",
        "ENCE"
      ],
      [
        "b",
        "y"
      ],
      [
        "b",
        "roke"
      ],
      [
        "r",
        "ong"
      ],
      [
        "Ġm",
        "on"
      ],
      [
        "Ġl",
        "am"
      ],
      [
        "ĠH",
        "ast"
      ],
      [
        "ĠM",
        "ay"
      ],
      [
        "ĠC",
        "an"
      ],
      [
        "ĠL",
        "AU"
      ],
      [
        "Ġde",
        "f"
      ],
      [
        "ess",
        "enger"
      ],
      [
        "Ġun",
        "cle"
      ],
      [
        "Ġmar",
        "k"
      ],
      [
        "Ġchild",
        "ren"
      ],
      [
        "ert",
        "ain"
      ],
      [
        "ĠLAU",
        "RENCE"
      ],
      [
        "B",
        "Y"
      ],
      [
        "B",
        "ER"
      ],
      [
        "Ġs",
        "ight"
      ],
      [
        "Ġm",
        "et"
      ],
      [
        "Ġl",
        "ate"
      ],
      [
        "Ġl",
        "eft"
      ],
      [
        "ĠA",
        "h"
      ],
      [
        "Ġbe",
        "at"
      ],
      [
        "Ġso",
        "on"
      ],
      [
        "Ġv",
        "al"
      ],
      [
        "ĠJ",
        "ul"
      ],
      [
        "ĠThere",
        "fore"
      ],
      [
        "for",
        "m"
      ],
      [
        "Ġdan",
        "ger"
      ],
      [
        "ĠTy",
        "balt"
      ],
      [
        "Ġtend",
        "er"
      ],
      [
        "Ġmaj",
        "esty"
      ],
      [
        "F",
        "F"
      ],
      [
        "u",
        "se"
      ],
      [
        "Ġs",
        "in"
      ],
      [
        "Ġto",
        "ld"
      ],
      [
        "ĠS",
        "p"
      ],
      [
        "Ġse",
        "en"
      ],
      [
        "Ġsu",
        "re"
      ],
      [
        "LI",
        "FF"
      ],
      [
        "Ġsa",
        "ve"
      ],
      [
        "Ġfo",
        "ot"
      ],
      [
        "Ġday",
        "s"
      ],
      [
        "Ġwar",
        "rant"
      ],
      [
        "UM",
        "BER"
      ],
      [
        "li",
        "ke"
      ],
      [
        "TH",
        "UMBER"
      ],
      [
        "Ġwo",
        "e"
      ],
      [
        "ĠNOR",
        "THUMBER"
      ],
      [
        "ĠNORTHUMBER",
        "LAND"
      ],
      [
        "I",
        "D"
      ],
      [
        "T",
        "A"
      ],
      [
        "t",
        "ing"
      ],
      [
        "Ġs",
        "ad"
      ],
      [
        "re",
        "m"
      ],
      [
        "Ġg",
        "ener"
      ],
      [
        "ĠL",
        "u"
      ],
      [
        "id",
        "es"
      ],
      [
        "id",
        "ow"
      ],
      [
        "ĠP",
        "l"
      ],
      [
        "Ġdo",
        "es"
      ],
      [
        "Ġrep",
        "ort"
      ],
      [
        "Ġret",
        "urn"
      ],
      [
        "Ġmerc",
        "y"
      ],
      [
        "Ġfare",
        "well"
      ],
      [
        "d",
        "om"
      ],
      [
        "r",
        "ing"
      ],
      [
        "u",
        "p"
      ],
      [
        "he",
        "s"
      ],
      [
        "re",
        "l"
      ],
      [
        "Ġto",
        "gether"
      ],
      [
        "Ġwith",
        "out"
      ],
      [
        "Ġde",
        "ep"
      ],
      [
        "ter",
        "s"
      ],
      [
        "ear",
        "n"
      ],
      [
        "Ġgo",
        "ld"
      ],
      [
        "un",
        "es"
      ],
      [
        "ĠThou",
        "gh"
      ],
      [
        "Ġmar",
        "ry"
      ],
      [
        "Ġhea",
        "vy"
      ],
      [
        "ĠAN",
        "NE"
      ],
      [
        "Ġpur",
        "pose"
      ],
      [
        "Ġthr",
        "ough"
      ],
      [
        "R",
        "INC"
      ],
      [
        "a",
        "im"
      ],
      [
        "b",
        "l"
      ],
      [
        "c",
        "a"
      ],
      [
        "c",
        "her"
      ],
      [
        "i",
        "ct"
      ],
      [
        "v",
        "ent"
      ],
      [
        "Ġ",
        "ill"
      ],
      [
        "Ġc",
        "ho"
      ],
      [
        "Ġc",
        "old"
      ],
      [
        "Ġn",
        "urse"
      ],
      [
        "Ġg",
        "row"
      ],
      [
        "ĠH",
        "ad"
      ],
      [
        "ĠM",
        "ont"
      ],
      [
        "Ġre",
        "c"
      ],
      [
        "ĠP",
        "RINC"
      ],
      [
        "if",
        "ford"
      ],
      [
        "Ġlo",
        "st"
      ],
      [
        "ER",
        "D"
      ],
      [
        "ign",
        "ior"
      ],
      [
        "ĠCl",
        "ifford"
      ],
      [
        "Ġear",
        "s"
      ],
      [
        "Ġdes",
        "er"
      ],
      [
        "ment",
        "s"
      ],
      [
        "Ġpers",
        "on"
      ],
      [
        "Ġstran",
        "ge"
      ],
      [
        "ĠJul",
        "iet"
      ],
      [
        "ĠPRINC",
        "E"
      ],
      [
        "a",
        "z"
      ],
      [
        "m",
        "er"
      ],
      [
        "Ġt",
        "imes"
      ],
      [
        "Ġw",
        "at"
      ],
      [
        "or",
        "iol"
      ],
      [
        "ĠT",
        "ell"
      ],
      [
        "ing",
        "broke"
      ],
      [
        "ce",
        "ed"
      ],
      [
        "ĠB",
        "ol"
      ],
      [
        "ĠM",
        "I"
      ],
      [
        "ĠC",
        "am"
      ],
      [
        "our",
        "s"
      ],
      [
        "ent",
        "y"
      ],
      [
        "Ġas",
        "k"
      ],
      [
        "ĠR",
        "i"
      ],
      [
        "ro",
        "ss"
      ],
      [
        "Ġthy",
        "self"
      ],
      [
        "us",
        "h"
      ],
      [
        "Ġsu",
        "ff"
      ],
      [
        "Ġpl",
        "uck"
      ],
      [
        "Ġdis",
        "p"
      ],
      [
        "Ġlie",
        "ge"
      ],
      [
        "Ġbel",
        "ieve"
      ],
      [
        "Ġspir",
        "it"
      ],
      [
        "ĠBol",
        "ingbroke"
      ],
      [
        "e",
        "ver"
      ],
      [
        "Ġa",
        "ir"
      ],
      [
        "Ġa",
        "ge"
      ],
      [
        "Ġs",
        "il"
      ],
      [
        "Ġl",
        "earn"
      ],
      [
        "ĠA",
        "way"
      ],
      [
        "Ġhe",
        "ir"
      ],
      [
        "ĠW",
        "h"
      ],
      [
        "et",
        "s"
      ],
      [
        "ĠS",
        "ome"
      ],
      [
        "ĠS",
        "ignior"
      ],
      [
        "ĠH",
        "a"
      ],
      [
        "ain",
        "s"
      ],
      [
        "if",
        "t"
      ],
      [
        "Ġlo",
        "ss"
      ],
      [
        "Ġsay",
        "s"
      ],
      [
        "Ġj",
        "o"
      ],
      [
        "Ġpo",
        "int"
      ],
      [
        "ĠWho",
        "se"
      ],
      [
        "ĠOn",
        "e"
      ],
      [
        "ĠSh",
        "ould"
      ],
      [
        "a",
        "id"
      ],
      [
        "i",
        "al"
      ],
      [
        "n",
        "er"
      ],
      [
        "Ġb",
        "at"
      ],
      [
        "Ġf",
        "ly"
      ],
      [
        "Ġc",
        "ry"
      ],
      [
        "Ġp",
        "ast"
      ],
      [
        "ce",
        "d"
      ],
      [
        "ĠC",
        "oriol"
      ],
      [
        "Ġfri",
        "ar"
      ],
      [
        "Ġtru",
        "st"
      ],
      [
        "Ġdes",
        "ire"
      ],
      [
        "Ġhast",
        "e"
      ],
      [
        "Ġent",
        "reat"
      ],
      [
        "Ġjust",
        "ice"
      ],
      [
        "Ġdev",
        "il"
      ],
      [
        "Ġinst",
        "ru"
      ],
      [
        "Ġgr",
        "ound"
      ],
      [
        "ĠFare",
        "well"
      ],
      [
        "g",
        "u"
      ],
      [
        "g",
        "es"
      ],
      [
        "n",
        "ight"
      ],
      [
        "s",
        "h"
      ],
      [
        "Ġ",
        "ord"
      ],
      [
        "ou",
        "th"
      ],
      [
        "Ġm",
        "ur"
      ],
      [
        "in",
        "a"
      ],
      [
        "in",
        "ed"
      ],
      [
        "Ġb",
        "old"
      ],
      [
        "Ġf",
        "ound"
      ],
      [
        "Ġn",
        "ear"
      ],
      [
        "Ġto",
        "ward"
      ],
      [
        "ĠS",
        "en"
      ],
      [
        "ĠL",
        "ike"
      ],
      [
        "ĠF",
        "rance"
      ],
      [
        "ĠP",
        "ray"
      ],
      [
        "Ġfa",
        "st"
      ],
      [
        "Ġv",
        "is"
      ],
      [
        "au",
        "d"
      ],
      [
        "ak",
        "ing"
      ],
      [
        "Ġsl",
        "ain"
      ],
      [
        "Ġbet",
        "w"
      ],
      [
        "ix",
        "t"
      ],
      [
        "Ġserv",
        "ice"
      ],
      [
        "Ġstra",
        "ight"
      ],
      [
        "Ġremem",
        "ber"
      ],
      [
        "F",
        "ID"
      ],
      [
        "I",
        "Z"
      ],
      [
        "L",
        "E"
      ],
      [
        "L",
        "OR"
      ],
      [
        "U",
        "FID"
      ],
      [
        "Ġc",
        "urse"
      ],
      [
        "ĠA",
        "UFID"
      ],
      [
        "om",
        "an"
      ],
      [
        "ut",
        "ion"
      ],
      [
        "ĠM",
        "essenger"
      ],
      [
        "Ġwe",
        "ar"
      ],
      [
        "Ġst",
        "rong"
      ],
      [
        "ĠF",
        "LOR"
      ],
      [
        "ĠG",
        "l"
      ],
      [
        "ĠThe",
        "se"
      ],
      [
        "Ġqu",
        "ick"
      ],
      [
        "Ġmar",
        "ried"
      ],
      [
        "Ġal",
        "one"
      ],
      [
        "Ġhar",
        "d"
      ],
      [
        "Ġworth",
        "y"
      ],
      [
        "Ġbea",
        "uty"
      ],
      [
        "IZ",
        "EL"
      ],
      [
        "ĠAUFID",
        "IUS"
      ],
      [
        "ĠFLOR",
        "IZEL"
      ],
      [
        "T",
        "ON"
      ],
      [
        "n",
        "ing"
      ],
      [
        "x",
        "t"
      ],
      [
        "Ġt",
        "ouch"
      ],
      [
        "Ġw",
        "oo"
      ],
      [
        "Ġf",
        "it"
      ],
      [
        "it",
        "he"
      ],
      [
        "Ġh",
        "u"
      ],
      [
        "Ġo",
        "pen"
      ],
      [
        "Ġg",
        "rant"
      ],
      [
        "Ġbe",
        "c"
      ],
      [
        "le",
        "t"
      ],
      [
        "ĠS",
        "ee"
      ],
      [
        "ad",
        "am"
      ],
      [
        "Ġre",
        "ady"
      ],
      [
        "IO",
        "N"
      ],
      [
        "Ġbr",
        "ought"
      ],
      [
        "ure",
        "d"
      ],
      [
        "Ġpo",
        "ss"
      ],
      [
        "ĠCl",
        "aud"
      ],
      [
        "Ġex",
        "ec"
      ],
      [
        "Ġru",
        "n"
      ],
      [
        "Ġenem",
        "y"
      ],
      [
        "Ġreven",
        "ge"
      ],
      [
        "Ġgener",
        "al"
      ],
      [
        "ĠClaud",
        "io"
      ],
      [
        "!",
        "'"
      ],
      [
        "b",
        "s"
      ],
      [
        "g",
        "s"
      ],
      [
        "i",
        "ble"
      ],
      [
        "Ġf",
        "ur"
      ],
      [
        "Ġd",
        "uty"
      ],
      [
        "Ġyou",
        "th"
      ],
      [
        "Ġin",
        "c"
      ],
      [
        "Ġin",
        "f"
      ],
      [
        "ce",
        "pt"
      ],
      [
        "Ġis",
        "s"
      ],
      [
        "Ġit",
        "self"
      ],
      [
        "Ġde",
        "li"
      ],
      [
        "Ġlo",
        "se"
      ],
      [
        "ER",
        "S"
      ],
      [
        "au",
        "nt"
      ],
      [
        "Ġknow",
        "s"
      ],
      [
        "Ġcan",
        "st"
      ],
      [
        "ink",
        "s"
      ],
      [
        "Ġqu",
        "ar"
      ],
      [
        "Ġpro",
        "f"
      ],
      [
        "um",
        "ber"
      ],
      [
        "Ġthought",
        "s"
      ],
      [
        "Ġhour",
        "s"
      ],
      [
        "Ġchar",
        "ge"
      ],
      [
        "Ġconf",
        "ess"
      ],
      [
        "ĠGentle",
        "man"
      ],
      [
        "ĠSen",
        "ator"
      ],
      [
        "A",
        "S"
      ],
      [
        "B",
        "AST"
      ],
      [
        "C",
        "IUS"
      ],
      [
        "E",
        "BAST"
      ],
      [
        "c",
        "ester"
      ],
      [
        "p",
        "l"
      ],
      [
        "s",
        "hip"
      ],
      [
        "u",
        "a"
      ],
      [
        "v",
        "o"
      ],
      [
        "Ġm",
        "orn"
      ],
      [
        "Ġf",
        "eel"
      ],
      [
        "Ġp",
        "ar"
      ],
      [
        "ĠA",
        "gainst"
      ],
      [
        "ĠB",
        "ec"
      ],
      [
        "ĠS",
        "EBAST"
      ],
      [
        "ĠM",
        "aster"
      ],
      [
        "ĠM",
        "adam"
      ],
      [
        "ill",
        "o"
      ],
      [
        "ri",
        "age"
      ],
      [
        "Ġre",
        "ad"
      ],
      [
        "Ġde",
        "l"
      ],
      [
        "Ġsp",
        "eed"
      ],
      [
        "Ġdes",
        "p"
      ],
      [
        "Ġtw",
        "enty"
      ],
      [
        "Ġstand",
        "s"
      ],
      [
        "ĠMAR",
        "CIUS"
      ],
      [
        "ĠShe",
        "pherd"
      ],
      [
        "che",
        "d"
      ],
      [
        "Ġstre",
        "ng"
      ],
      [
        "ĠMont",
        "ague"
      ],
      [
        "ĠGl",
        "ou"
      ],
      [
        "ithe",
        "e"
      ],
      [
        "ĠSEBAST",
        "IAN"
      ],
      [
        "O",
        "W"
      ],
      [
        "c",
        "ess"
      ],
      [
        "e",
        "ep"
      ],
      [
        "o",
        "p"
      ],
      [
        "t",
        "ed"
      ],
      [
        "Ġf",
        "ore"
      ],
      [
        "Ġf",
        "ield"
      ],
      [
        "Ġd",
        "iv"
      ],
      [
        "Ġp",
        "ost"
      ],
      [
        "Ġhe",
        "ll"
      ],
      [
        "ing",
        "ham"
      ],
      [
        "Ġbe",
        "hold"
      ],
      [
        "Ġha",
        "lf"
      ],
      [
        "oo",
        "p"
      ],
      [
        "ĠP",
        "r"
      ],
      [
        "ol",
        "k"
      ],
      [
        "fe",
        "ction"
      ],
      [
        "Ġj",
        "ud"
      ],
      [
        "um",
        "p"
      ],
      [
        "Ġfear",
        "ful"
      ],
      [
        "Ġmo",
        "ck"
      ],
      [
        "Ġres",
        "ol"
      ],
      [
        "Ġcoun",
        "sel"
      ],
      [
        "ĠCam",
        "illo"
      ],
      [
        "D",
        "EL"
      ],
      [
        "n",
        "o"
      ],
      [
        "Ġt",
        "er"
      ],
      [
        "Ġm",
        "in"
      ],
      [
        "Ġw",
        "ret"
      ],
      [
        "Ġb",
        "ound"
      ],
      [
        "Ġb",
        "os"
      ],
      [
        "Ġd",
        "am"
      ],
      [
        "Ġc",
        "ut"
      ],
      [
        "Ġy",
        "e"
      ],
      [
        "ĠT",
        "ill"
      ],
      [
        "ĠB",
        "o"
      ],
      [
        "ĠB",
        "uck"
      ],
      [
        "ĠB",
        "ION"
      ],
      [
        "Ġe",
        "ach"
      ],
      [
        "ad",
        "s"
      ],
      [
        "al",
        "m"
      ],
      [
        "Ġsh",
        "ort"
      ],
      [
        "ĠV",
        "ol"
      ],
      [
        "Ġknow",
        "n"
      ],
      [
        "Ġwor",
        "k"
      ],
      [
        "ort",
        "al"
      ],
      [
        "Ġheart",
        "s"
      ],
      [
        "Ġmar",
        "riage"
      ],
      [
        "Ġhon",
        "est"
      ],
      [
        "Ġtri",
        "b"
      ],
      [
        "ĠHast",
        "ings"
      ],
      [
        "ĠGlou",
        "cester"
      ],
      [
        "DEL",
        "LO"
      ],
      [
        "Ġbos",
        "om"
      ],
      [
        "ĠBuck",
        "ingham"
      ],
      [
        "ĠBION",
        "DELLO"
      ],
      [
        "f",
        "olk"
      ],
      [
        "i",
        "ers"
      ],
      [
        "o",
        "f"
      ],
      [
        "p",
        "are"
      ],
      [
        "s",
        "c"
      ],
      [
        "t",
        "he"
      ],
      [
        "Ġ",
        "ve"
      ],
      [
        "Ġt",
        "it"
      ],
      [
        "Ġt",
        "en"
      ],
      [
        "Ġt",
        "ale"
      ],
      [
        "Ġw",
        "hi"
      ],
      [
        "Ġw",
        "onder"
      ],
      [
        "Ġw",
        "idow"
      ],
      [
        "Ġb",
        "it"
      ],
      [
        "on",
        "es"
      ],
      [
        "Ġd",
        "ish"
      ],
      [
        "en",
        "ch"
      ],
      [
        "ĠC",
        "ap"
      ],
      [
        "ra",
        "h"
      ],
      [
        "ĠTh",
        "us"
      ],
      [
        "Ġsu",
        "it"
      ],
      [
        "Ġsee",
        "k"
      ],
      [
        "ĠNor",
        "folk"
      ],
      [
        "Ġwom",
        "en"
      ],
      [
        "Ġhar",
        "m"
      ],
      [
        "Ġcomp",
        "any"
      ],
      [
        "Ġgu",
        "ilt"
      ],
      [
        "Ġhigh",
        "ness"
      ],
      [
        "Ġstri",
        "ke"
      ],
      [
        "Ġdra",
        "w"
      ],
      [
        "Ġatt",
        "end"
      ],
      [
        "Ġser",
        "ve"
      ],
      [
        "Ġvo",
        "ices"
      ],
      [
        "Ġsomet",
        "hing"
      ],
      [
        "Ġmur",
        "der"
      ],
      [
        "ĠVol",
        "s"
      ],
      [
        "O",
        "P"
      ],
      [
        "T",
        "w"
      ],
      [
        "h",
        "ood"
      ],
      [
        "m",
        "ost"
      ],
      [
        "Ġa",
        "g"
      ],
      [
        "Ġs",
        "ing"
      ],
      [
        "Ġs",
        "at"
      ],
      [
        "Ġs",
        "ide"
      ],
      [
        "Ġw",
        "atch"
      ],
      [
        "Ġb",
        "ur"
      ],
      [
        "is",
        "hed"
      ],
      [
        "Ġc",
        "or"
      ],
      [
        "ĠA",
        "UM"
      ],
      [
        "ĠC",
        "A"
      ],
      [
        "and",
        "er"
      ],
      [
        "Ġlo",
        "ving"
      ],
      [
        "Ġkn",
        "ew"
      ],
      [
        "ER",
        "LE"
      ],
      [
        "Ġdid",
        "st"
      ],
      [
        "Ġdis",
        "t"
      ],
      [
        "Ġgentle",
        "men"
      ],
      [
        "ĠAN",
        "TON"
      ],
      [
        "Ġpre",
        "t"
      ],
      [
        "Ġheaven",
        "s"
      ],
      [
        "Ġchan",
        "ge"
      ],
      [
        "ĠLu",
        "centio"
      ],
      [
        "Ġstreng",
        "th"
      ],
      [
        "ĠAUM",
        "ERLE"
      ],
      [
        "ĠANTON",
        "IO"
      ],
      [
        "A",
        "LO"
      ],
      [
        "Z",
        "ALO"
      ],
      [
        "Ġa",
        "ct"
      ],
      [
        "Ġs",
        "ake"
      ],
      [
        "Ġw",
        "ast"
      ],
      [
        "ĠT",
        "ran"
      ],
      [
        "ĠW",
        "el"
      ],
      [
        "ĠB",
        "ian"
      ],
      [
        "ent",
        "s"
      ],
      [
        "Ġst",
        "ir"
      ],
      [
        "ĠL",
        "anc"
      ],
      [
        "ĠG",
        "ON"
      ],
      [
        "ĠP",
        "et"
      ],
      [
        "ĠMar",
        "ry"
      ],
      [
        "Ġaf",
        "f"
      ],
      [
        "Ġcl",
        "oud"
      ],
      [
        "Ġple",
        "asure"
      ],
      [
        "Ġent",
        "er"
      ],
      [
        "Ġbra",
        "ve"
      ],
      [
        "eth",
        "inks"
      ],
      [
        "Ġenem",
        "ies"
      ],
      [
        "ĠLanc",
        "aster"
      ],
      [
        "ĠGON",
        "ZALO"
      ],
      [
        "b",
        "ly"
      ],
      [
        "f",
        "id"
      ],
      [
        "i",
        "ves"
      ],
      [
        "Ġt",
        "y"
      ],
      [
        "Ġs",
        "ign"
      ],
      [
        "Ġm",
        "usic"
      ],
      [
        "Ġw",
        "a"
      ],
      [
        "re",
        "w"
      ],
      [
        "Ġb",
        "reat"
      ],
      [
        "Ġd",
        "r"
      ],
      [
        "Ġp",
        "ra"
      ],
      [
        "Ġp",
        "ie"
      ],
      [
        "Ġp",
        "ale"
      ],
      [
        "Ġg",
        "ar"
      ],
      [
        "Ġg",
        "ates"
      ],
      [
        "ĠS",
        "w"
      ],
      [
        "ĠH",
        "ER"
      ],
      [
        "ĠM",
        "ost"
      ],
      [
        "oo",
        "se"
      ],
      [
        "ĠL",
        "ady"
      ],
      [
        "ĠP",
        "om"
      ],
      [
        "il",
        "s"
      ],
      [
        "Ġne",
        "xt"
      ],
      [
        "Ġcom",
        "ing"
      ],
      [
        "Ġthan",
        "ks"
      ],
      [
        "Ġex",
        "t"
      ],
      [
        "ĠU",
        "nt"
      ],
      [
        "Ġcl",
        "ose"
      ],
      [
        "Ġsoul",
        "s"
      ]
    ]
  }
}